#ifndef MODELO_DISTURBIOS_H
#define MODELO_DISTURBIOS_H

// Modelo de IA para Qualidade de Energia - TensorFlow Lite (float32)
// Classes: [harmonico, normal, sag, swell, transitorio]
// Input: 9 features normalizadas pelo StandardScaler
// Output: 5 logits (camada densa linear)

#include <cstdint>

alignas(8) const unsigned char modelo_disturbios_seed[] = {
  0x1c, 0x00, 0x00, 0x00, 0x54, 0x46, 0x4c, 0x33, 0x14, 0x00, 0x20, 0x00,
  0x1c, 0x00, 0x18, 0x00, 0x14, 0x00, 0x10, 0x00, 0x0c, 0x00, 0x00, 0x00,
  0x08, 0x00, 0x04, 0x00, 0x14, 0x00, 0x00, 0x00, 0x1c, 0x00, 0x00, 0x00,
  0x98, 0x00, 0x00, 0x00, 0xf0, 0x00, 0x00, 0x00, 0x24, 0x2f, 0x00, 0x00,
  0x34, 0x2f, 0x00, 0x00, 0x1c, 0x34, 0x00, 0x00, 0x03, 0x00, 0x00, 0x00,
  0x01, 0x00, 0x00, 0x00, 0x10, 0x00, 0x00, 0x00, 0x00, 0x00, 0x0a, 0x00,
  0x10, 0x00, 0x0c, 0x00, 0x08, 0x00, 0x04, 0x00, 0x0a, 0x00, 0x00, 0x00,
  0x0c, 0x00, 0x00, 0x00, 0x1c, 0x00, 0x00, 0x00, 0x3c, 0x00, 0x00, 0x00,
  0x0f, 0x00, 0x00, 0x00, 0x73, 0x65, 0x72, 0x76, 0x69, 0x6e, 0x67, 0x5f,
  0x64, 0x65, 0x66, 0x61, 0x75, 0x6c, 0x74, 0x00, 0x01, 0x00, 0x00, 0x00,
  0x04, 0x00, 0x00, 0x00, 0x90, 0xff, 0xff, 0xff, 0x09, 0x00, 0x00, 0x00,
  0x04, 0x00, 0x00, 0x00, 0x08, 0x00, 0x00, 0x00, 0x6f, 0x75, 0x74, 0x70,
  0x75, 0x74, 0x5f, 0x30, 0x00, 0x00, 0x00, 0x00, 0x01, 0x00, 0x00, 0x00,
  0x04, 0x00, 0x00, 0x00, 0xea, 0xd3, 0xff, 0xff, 0x04, 0x00, 0x00, 0x00,
  0x0c, 0x00, 0x00, 0x00, 0x6b, 0x65, 0x72, 0x61, 0x73, 0x5f, 0x74, 0x65,
  0x6e, 0x73, 0x6f, 0x72, 0x00, 0x00, 0x00, 0x00, 0x02, 0x00, 0x00, 0x00,
  0x34, 0x00, 0x00, 0x00, 0x04, 0x00, 0x00, 0x00, 0xdc, 0xff, 0xff, 0xff,
  0x0c, 0x00, 0x00, 0x00, 0x04, 0x00, 0x00, 0x00, 0x13, 0x00, 0x00, 0x00,
  0x43, 0x4f, 0x4e, 0x56, 0x45, 0x52, 0x53, 0x49, 0x4f, 0x4e, 0x5f, 0x4d,
  0x45, 0x54, 0x41, 0x44, 0x41, 0x54, 0x41, 0x00, 0x08, 0x00, 0x0c, 0x00,
  0x08, 0x00, 0x04, 0x00, 0x08, 0x00, 0x00, 0x00, 0x0b, 0x00, 0x00, 0x00,
  0x04, 0x00, 0x00, 0x00, 0x13, 0x00, 0x00, 0x00, 0x6d, 0x69, 0x6e, 0x5f,
  0x72, 0x75, 0x6e, 0x74, 0x69, 0x6d, 0x65, 0x5f, 0x76, 0x65, 0x72, 0x73,
  0x69, 0x6f, 0x6e, 0x00, 0x0d, 0x00, 0x00, 0x00, 0x30, 0x2e, 0x00, 0x00,
  0x28, 0x2e, 0x00, 0x00, 0x98, 0x2b, 0x00, 0x00, 0x80, 0x0b, 0x00, 0x00,
  0x5c, 0x0b, 0x00, 0x00, 0xcc, 0x0a, 0x00, 0x00, 0xbc, 0x09, 0x00, 0x00,
  0xac, 0x00, 0x00, 0x00, 0xa4, 0x00, 0x00, 0x00, 0x9c, 0x00, 0x00, 0x00,
  0x94, 0x00, 0x00, 0x00, 0x74, 0x00, 0x00, 0x00, 0x04, 0x00, 0x00, 0x00,
  0x9a, 0xd4, 0xff, 0xff, 0x04, 0x00, 0x00, 0x00, 0x60, 0x00, 0x00, 0x00,
  0x10, 0x00, 0x00, 0x00, 0x00, 0x00, 0x00, 0x00, 0x08, 0x00, 0x0e, 0x00,
  0x08, 0x00, 0x04, 0x00, 0x08, 0x00, 0x00, 0x00, 0x10, 0x00, 0x00, 0x00,
  0x24, 0x00, 0x00, 0x00, 0x00, 0x00, 0x06, 0x00, 0x08, 0x00, 0x04, 0x00,
  0x06, 0x00, 0x00, 0x00, 0x04, 0x00, 0x00, 0x00, 0x00, 0x00, 0x00, 0x00,
  0x0c, 0x00, 0x18, 0x00, 0x14, 0x00, 0x10, 0x00, 0x0c, 0x00, 0x04, 0x00,
  0x0c, 0x00, 0x00, 0x00, 0x1d, 0xde, 0xef, 0xc2, 0x4f, 0x88, 0x16, 0xd9,
  0x02, 0x00, 0x00, 0x00, 0x02, 0x00, 0x00, 0x00, 0x04, 0x00, 0x00, 0x00,
  0x06, 0x00, 0x00, 0x00, 0x32, 0x2e, 0x31, 0x39, 0x2e, 0x30, 0x00, 0x00,
  0x06, 0xd5, 0xff, 0xff, 0x04, 0x00, 0x00, 0x00, 0x10, 0x00, 0x00, 0x00,
  0x31, 0x2e, 0x35, 0x2e, 0x30, 0x00, 0x00, 0x00, 0x00, 0x00, 0x00, 0x00,
  0x00, 0x00, 0x00, 0x00, 0xc0, 0xcd, 0xff, 0xff, 0xc4, 0xcd, 0xff, 0xff,
  0xc8, 0xcd, 0xff, 0xff, 0x2e, 0xd5, 0xff, 0xff, 0x04, 0x00, 0x00, 0x00,
  0x00, 0x09, 0x00, 0x00, 0x0f, 0x99, 0x58, 0x3e, 0x9e, 0xf0, 0x1b, 0x3d,
  0xd5, 0xc2, 0x6c, 0x3e, 0xac, 0xe4, 0xff, 0xbd, 0xa6, 0x6b, 0x73, 0x3e,
  0x79, 0x1b, 0x33, 0x3d, 0x43, 0x74, 0x18, 0xbe, 0x74, 0x3b, 0xcb, 0x3e,
  0xd5, 0x15, 0xdf, 0x3d, 0x44, 0xac, 0x2e, 0xbe, 0x76, 0xaa, 0xdd, 0x3e,
  0xc3, 0xe1, 0x95, 0xbe, 0x6b, 0x17, 0x63, 0xbd, 0x00, 0x70, 0x76, 0x3d,
  0x35, 0xe2, 0x32, 0x3e, 0x82, 0xd9, 0x2c, 0xbe, 0x81, 0x30, 0x86, 0x3e,
  0x9f, 0x04, 0x23, 0x3e, 0x63, 0x87, 0x3a, 0xbe, 0x6d, 0x3d, 0x0e, 0x3e,
  0x5a, 0xc4, 0x37, 0xbd, 0x18, 0x3e, 0x47, 0x3e, 0x39, 0x2f, 0x96, 0x3e,
  0xe1, 0xa5, 0xad, 0x39, 0x59, 0xde, 0xdf, 0x3d, 0x6d, 0x38, 0xa3, 0xbc,
  0x59, 0xea, 0xde, 0xbe, 0x1f, 0xbe, 0x77, 0x3e, 0xa5, 0x72, 0x68, 0xbd,
  0x1b, 0xb3, 0x30, 0x3d, 0x9f, 0xf9, 0x45, 0xbc, 0x37, 0x3a, 0x2c, 0xbe,
  0x6d, 0xaa, 0x8f, 0x3d, 0xd6, 0xe1, 0x2c, 0xbd, 0x5e, 0xae, 0xe1, 0x3e,
  0x38, 0x89, 0x8d, 0x3c, 0x3f, 0x9c, 0x38, 0xbe, 0xcc, 0xbc, 0x8b, 0xbe,
  0xfa, 0x0e, 0x70, 0x3d, 0xba, 0x78, 0xb6, 0x3d, 0x2f, 0x0d, 0x85, 0xbe,
  0x04, 0x7d, 0x8a, 0x3e, 0x90, 0x5a, 0x64, 0xbe, 0x52, 0xd6, 0xc5, 0xbd,
  0x5b, 0x2c, 0xa1, 0x3d, 0xa5, 0x5a, 0x7b, 0x3d, 0xf6, 0x69, 0xa5, 0xbd,
  0x4e, 0x0f, 0x00, 0x3e, 0xaf, 0x87, 0xe3, 0xbd, 0x79, 0x07, 0xc0, 0xbe,
  0x43, 0x92, 0x69, 0xbe, 0x82, 0x1d, 0x91, 0xbe, 0xc6, 0x21, 0x7b, 0x3d,
  0x52, 0xeb, 0xf8, 0x3d, 0x43, 0x4a, 0xbb, 0x3d, 0x81, 0xfd, 0x12, 0xbd,
  0x20, 0x95, 0x00, 0x3e, 0x7b, 0xf4, 0x04, 0xbe, 0x52, 0x05, 0xe7, 0x3e,
  0x6f, 0xac, 0xfe, 0xbd, 0x92, 0xa3, 0x5c, 0x3e, 0x71, 0x58, 0xef, 0xbd,
  0xd8, 0x3d, 0xec, 0xbe, 0x79, 0x62, 0xfd, 0x3d, 0x55, 0xb1, 0x38, 0xbe,
  0x8c, 0x5e, 0x90, 0x3b, 0x5d, 0xaf, 0xa8, 0xbe, 0x9d, 0x8a, 0x2c, 0x3e,
  0x67, 0x66, 0x2b, 0xbe, 0x67, 0x5c, 0x11, 0xbd, 0x8e, 0x21, 0xe8, 0x3e,
  0x6b, 0x99, 0x22, 0xbe, 0x8b, 0x6d, 0x13, 0x3e, 0x79, 0x99, 0xf1, 0x3e,
  0x5e, 0x2b, 0xc0, 0xbd, 0x01, 0xea, 0x0c, 0x3e, 0xab, 0x6b, 0x51, 0x3e,
  0xff, 0x73, 0xc0, 0xbd, 0x52, 0x50, 0x33, 0xbc, 0x24, 0x71, 0xaf, 0xbe,
  0x63, 0x25, 0xea, 0xbe, 0xa6, 0x8d, 0xcf, 0xbd, 0xc3, 0x94, 0xe5, 0x3d,
  0x63, 0xc4, 0x28, 0x3e, 0x3e, 0x8c, 0xb5, 0xbd, 0x26, 0x5b, 0xc6, 0x3e,
  0x2c, 0xbd, 0xa5, 0xbe, 0x03, 0x46, 0x56, 0xbe, 0xb9, 0x0f, 0x74, 0x3d,
  0xb1, 0xf2, 0x61, 0xbe, 0x94, 0xc1, 0x84, 0xbd, 0x08, 0xda, 0x12, 0xbb,
  0x2e, 0x5a, 0xaf, 0xbe, 0xe8, 0x23, 0x4d, 0x3e, 0x3d, 0x3f, 0x28, 0x3e,
  0xf2, 0x44, 0xbe, 0x3d, 0xb4, 0xe6, 0x86, 0xbe, 0x21, 0xf4, 0xe3, 0x3e,
  0xc7, 0x55, 0x30, 0x3d, 0xa1, 0x49, 0x07, 0xbe, 0x15, 0x99, 0x3e, 0x3e,
  0xe8, 0xb1, 0x88, 0x3e, 0x65, 0xd4, 0x58, 0xbe, 0xf4, 0xcd, 0x73, 0x3e,
  0x4d, 0xcd, 0x98, 0xbd, 0x6c, 0x96, 0x93, 0x3c, 0x95, 0xf4, 0xf5, 0xbe,
  0x1c, 0x69, 0x81, 0x3e, 0xb7, 0x3c, 0x91, 0x3d, 0xf0, 0x61, 0x11, 0x3d,
  0x96, 0xb2, 0x38, 0xbe, 0x45, 0x43, 0x70, 0x3e, 0x41, 0xa0, 0x5d, 0xbe,
  0x09, 0xd2, 0x63, 0x3d, 0xc5, 0xfd, 0x33, 0xbe, 0xdd, 0x94, 0x4f, 0xbe,
  0xbf, 0x6c, 0x0b, 0x3c, 0x77, 0x7f, 0x9b, 0xbd, 0x52, 0x7c, 0x4f, 0x3e,
  0xcf, 0xaf, 0x25, 0xbe, 0x52, 0x82, 0x81, 0x3e, 0x26, 0x23, 0x96, 0x3e,
  0x12, 0xff, 0x54, 0xbe, 0x93, 0x30, 0xeb, 0x3d, 0x21, 0xed, 0x10, 0xbd,
  0x76, 0x62, 0xd7, 0xbe, 0xe4, 0x8f, 0xc4, 0xbd, 0xb7, 0xe3, 0x2f, 0x3e,
  0xaa, 0x73, 0x3b, 0x3e, 0x39, 0x88, 0xa7, 0x3e, 0xa0, 0x4b, 0xa2, 0xbd,
  0xac, 0x35, 0x88, 0x3e, 0x31, 0x1d, 0x77, 0xbe, 0x7c, 0x9c, 0x17, 0x3f,
  0xc4, 0x57, 0xa9, 0xbe, 0x23, 0x33, 0x30, 0x3d, 0xa8, 0x98, 0x14, 0x3e,
  0x70, 0xb1, 0xf0, 0x3d, 0x1d, 0x04, 0x07, 0xbe, 0x6a, 0x93, 0x33, 0x3e,
  0x1d, 0x9b, 0x80, 0x3d, 0x2d, 0x66, 0xb1, 0x3d, 0x32, 0x88, 0xb0, 0xbe,
  0x5d, 0x85, 0x5e, 0x3e, 0xc9, 0x8d, 0xa1, 0x3e, 0x93, 0xae, 0x9b, 0xbe,
  0x9a, 0xf6, 0x52, 0x3e, 0x79, 0x21, 0x39, 0x3e, 0xea, 0xe5, 0xe6, 0xbe,
  0x90, 0xe4, 0x94, 0xbe, 0x5f, 0xe1, 0xbc, 0x3d, 0x65, 0x12, 0x73, 0xbe,
  0xbd, 0xb0, 0xf8, 0xbd, 0xe3, 0xf6, 0x1d, 0xbd, 0x4c, 0x1a, 0x98, 0x3c,
  0xde, 0x60, 0x27, 0x3e, 0x8f, 0x06, 0x81, 0x3e, 0x44, 0x35, 0x6c, 0xbe,
  0x26, 0xc3, 0x14, 0xbc, 0xb4, 0xa0, 0x93, 0xbe, 0xee, 0x87, 0xdd, 0xbe,
  0x81, 0x64, 0x91, 0x3e, 0xa3, 0x4a, 0x67, 0x3e, 0xe1, 0x20, 0x51, 0x3e,
  0x21, 0x8b, 0x1d, 0x3e, 0x5a, 0x7f, 0x42, 0xbd, 0x99, 0x2d, 0x97, 0x3e,
  0x79, 0x6f, 0x22, 0xbd, 0xc5, 0xf3, 0x4b, 0xbe, 0xdd, 0x53, 0x01, 0x3f,
  0xea, 0x9a, 0xa7, 0xbe, 0xfb, 0x28, 0x5e, 0xbe, 0xe6, 0xfa, 0x5e, 0x3d,
  0x36, 0xdd, 0x5c, 0x3d, 0x40, 0x50, 0x86, 0x3e, 0x85, 0x02, 0x2f, 0x3e,
  0x89, 0x51, 0x21, 0x3e, 0x7f, 0xa8, 0x94, 0x3d, 0x97, 0xad, 0x13, 0xbe,
  0xe1, 0xff, 0xaa, 0x3e, 0x33, 0x94, 0x4e, 0xbe, 0xdd, 0xd7, 0x8b, 0x3d,
  0x27, 0x24, 0x91, 0xbd, 0x88, 0x98, 0x51, 0x3e, 0x98, 0x57, 0x1b, 0xbe,
  0x01, 0x55, 0xa9, 0x3d, 0x26, 0x46, 0x6b, 0x3d, 0xe0, 0x86, 0x75, 0xbe,
  0x74, 0x18, 0xee, 0xbd, 0xe0, 0xf7, 0xf4, 0xbd, 0x8d, 0x9d, 0xb6, 0xbe,
  0x45, 0xad, 0x9c, 0x3d, 0xae, 0x54, 0x96, 0xbc, 0x76, 0x39, 0x81, 0x3d,
  0xaa, 0xce, 0x11, 0xbe, 0x60, 0xcc, 0xf0, 0xbd, 0xc9, 0x9a, 0x51, 0x3e,
  0xcc, 0x6c, 0x6d, 0xbe, 0xf3, 0x0d, 0x24, 0x3e, 0x79, 0x20, 0x83, 0xbe,
  0x14, 0x94, 0x1c, 0x3e, 0x2a, 0x88, 0x2c, 0x3e, 0xfa, 0xae, 0x27, 0x3d,
  0x7f, 0x67, 0x28, 0x3e, 0xda, 0xe7, 0x14, 0xbe, 0x3a, 0x11, 0x2a, 0x3f,
  0x9d, 0xbd, 0xb9, 0xbc, 0x15, 0xcd, 0x0b, 0x3e, 0x49, 0xce, 0xb8, 0xbe,
  0xac, 0xf2, 0x00, 0xbd, 0x75, 0xce, 0xed, 0xbd, 0xfe, 0xc8, 0x45, 0xbe,
  0xbc, 0xa9, 0x08, 0x3e, 0xe7, 0x3c, 0x38, 0xbd, 0xd1, 0x09, 0x4c, 0x3d,
  0x52, 0xb0, 0x6b, 0xbe, 0x3f, 0x53, 0x06, 0xbe, 0xa6, 0x8a, 0x0d, 0x3e,
  0x07, 0xec, 0x98, 0xbd, 0x51, 0xd6, 0x96, 0xbd, 0xa7, 0x09, 0xbf, 0xbd,
  0x67, 0xcd, 0x58, 0x3e, 0x38, 0x12, 0x99, 0xbd, 0x3f, 0xa3, 0xc1, 0xbd,
  0x7a, 0xb4, 0x93, 0x3e, 0x17, 0x8a, 0x98, 0xbd, 0x26, 0xcf, 0x40, 0xbe,
  0x41, 0xd2, 0x51, 0xbc, 0x2c, 0xb8, 0x0a, 0xbd, 0x85, 0x6b, 0x67, 0xbe,
  0xdb, 0xae, 0x97, 0xbe, 0x46, 0x70, 0x9d, 0xbd, 0x44, 0x39, 0x30, 0x3e,
  0xbe, 0xae, 0x8b, 0xbe, 0x3e, 0xd7, 0x90, 0xbe, 0x49, 0xd7, 0xfa, 0x3e,
  0x76, 0x1e, 0xac, 0xbd, 0x99, 0x80, 0x64, 0xbe, 0xe5, 0x0d, 0x20, 0x3d,
  0x00, 0x45, 0xcf, 0x3d, 0x01, 0x36, 0xc3, 0x3c, 0x88, 0x1e, 0x70, 0x3e,
  0x0f, 0x64, 0x6f, 0x3e, 0xd0, 0x8c, 0x88, 0x3e, 0x38, 0x72, 0x9d, 0x3d,
  0xcb, 0x73, 0x68, 0xbe, 0xdf, 0xe5, 0x4d, 0x3e, 0xc0, 0xd5, 0xb3, 0x3d,
  0x60, 0xa3, 0x16, 0x3e, 0x95, 0x61, 0x67, 0x3d, 0x29, 0xd2, 0xd3, 0xbe,
  0x14, 0x81, 0xbe, 0x3e, 0x54, 0x0b, 0xbe, 0x3d, 0xe2, 0xc8, 0x7f, 0x3e,
  0x7f, 0x1f, 0x7b, 0xbe, 0x38, 0x6d, 0xc2, 0xbe, 0xea, 0xa8, 0x2b, 0x3e,
  0x2a, 0xeb, 0x0b, 0x3b, 0x18, 0x48, 0x20, 0xbe, 0x51, 0x3e, 0xcd, 0x3e,
  0x19, 0xa0, 0xc5, 0x3d, 0x6d, 0x4e, 0x89, 0x3d, 0x89, 0x35, 0xb1, 0x3c,
  0xbd, 0x91, 0xbf, 0xbe, 0x2b, 0x7d, 0x9c, 0xbe, 0x48, 0x10, 0xac, 0x3d,
  0x47, 0x20, 0x72, 0x3d, 0x85, 0x82, 0x32, 0xbe, 0x69, 0x59, 0x05, 0x3f,
  0x6a, 0x04, 0xd3, 0xbd, 0xc4, 0xe9, 0x55, 0xbe, 0x76, 0x9e, 0x96, 0x3e,
  0x15, 0xc0, 0x7a, 0x3d, 0x2b, 0x09, 0xde, 0x3d, 0x5d, 0x62, 0x58, 0xbe,
  0xee, 0xb1, 0x62, 0x3c, 0xad, 0xe9, 0x3d, 0x3e, 0xf7, 0x2e, 0x87, 0xbe,
  0x49, 0x5c, 0xb3, 0x3e, 0x07, 0x10, 0x30, 0x3e, 0x0c, 0xcb, 0x9a, 0xbe,
  0xa8, 0xcb, 0xc7, 0x3d, 0xf6, 0xc0, 0xed, 0x3d, 0xde, 0xb0, 0x8c, 0xbe,
  0x9d, 0x5d, 0xc9, 0xbd, 0x00, 0xb2, 0xa2, 0x3c, 0xb0, 0xfa, 0x14, 0xbe,
  0x2e, 0xfb, 0x97, 0x3d, 0xb9, 0xbb, 0x1c, 0x3e, 0x58, 0xec, 0x53, 0x3e,
  0x86, 0xfc, 0x61, 0x3e, 0x35, 0x55, 0x02, 0xbc, 0x7f, 0xcb, 0x90, 0x3e,
  0xe2, 0x29, 0x42, 0x3d, 0x3c, 0x20, 0xe4, 0x3d, 0x2f, 0xd6, 0xee, 0xbe,
  0x4c, 0xa2, 0xd5, 0xbe, 0x3f, 0xac, 0x76, 0x3e, 0xea, 0xe0, 0x68, 0xbe,
  0x45, 0x2e, 0x12, 0xbe, 0x7f, 0xb2, 0x6d, 0x3e, 0x78, 0xa3, 0xd3, 0xbe,
  0xd1, 0x2a, 0x92, 0xbe, 0x51, 0x78, 0x3b, 0x3e, 0x42, 0xb5, 0x24, 0xbe,
  0x84, 0x60, 0x62, 0x3e, 0x9a, 0x9d, 0x09, 0xbe, 0x1a, 0x02, 0xc6, 0xbd,
  0x54, 0x6d, 0x3a, 0xbe, 0xb2, 0x63, 0x97, 0x3e, 0x16, 0x38, 0xed, 0xbe,
  0xb6, 0x8c, 0x70, 0xbe, 0x91, 0xed, 0x53, 0xbe, 0x7c, 0x65, 0xb1, 0x3e,
  0x0f, 0xe5, 0x3a, 0x3e, 0xc1, 0x37, 0x6a, 0xbc, 0x2e, 0x2d, 0xfe, 0x3d,
  0x43, 0x1a, 0x2a, 0x3e, 0x11, 0x3a, 0x05, 0x3e, 0x7a, 0x4d, 0x0c, 0x3e,
  0x95, 0x3f, 0x03, 0x3e, 0x71, 0x63, 0x95, 0xbe, 0x1d, 0x67, 0x13, 0x3f,
  0x7d, 0x7c, 0x30, 0xbe, 0x22, 0x0d, 0xc0, 0xbd, 0x95, 0xc3, 0x63, 0x3d,
  0xa0, 0xcf, 0x6d, 0x3d, 0x9f, 0x0f, 0x38, 0x3e, 0x59, 0x0f, 0xf2, 0xbe,
  0x2f, 0x2a, 0x57, 0x3e, 0x57, 0x67, 0xb2, 0xbe, 0xbb, 0x8f, 0x96, 0xbe,
  0xd9, 0x87, 0x2c, 0x3e, 0x81, 0x1b, 0x88, 0xba, 0x08, 0xcf, 0xd7, 0xbd,
  0xd8, 0xed, 0x59, 0xbe, 0xf5, 0x4e, 0xfc, 0x3c, 0x3d, 0x78, 0x3f, 0x3e,
  0x98, 0xa6, 0xd5, 0xbd, 0x9d, 0x5f, 0x52, 0x3d, 0xde, 0x86, 0x26, 0xbd,
  0x80, 0xda, 0x67, 0xbe, 0x2b, 0x2b, 0x3a, 0xbd, 0x01, 0xb5, 0xd7, 0x3d,
  0xe5, 0x09, 0xb3, 0xbd, 0x1b, 0x8c, 0x63, 0x3d, 0x16, 0xad, 0xba, 0x3e,
  0xe7, 0xcf, 0x82, 0xbe, 0xa4, 0x37, 0x3d, 0x3e, 0x82, 0xcd, 0x1a, 0x3e,
  0xaf, 0xfa, 0x0e, 0xbf, 0x36, 0x92, 0x20, 0x3e, 0x80, 0x13, 0x4f, 0x3d,
  0x1a, 0x34, 0x5c, 0x3e, 0x44, 0x5f, 0x27, 0x3d, 0x01, 0xb7, 0xa4, 0x3d,
  0x6b, 0x7e, 0xe7, 0x3d, 0x9a, 0x18, 0xf8, 0xbd, 0xdc, 0x79, 0xb8, 0x3e,
  0x38, 0xc0, 0x74, 0xbd, 0xed, 0xbb, 0xfa, 0xbd, 0x5f, 0x7c, 0x2c, 0xbe,
  0x59, 0xfb, 0xd7, 0x3d, 0x06, 0x07, 0x28, 0xbe, 0x58, 0xc5, 0x36, 0xbd,
  0xad, 0xc4, 0xdb, 0x3c, 0x09, 0xa8, 0x7e, 0xbd, 0x8f, 0xe1, 0x10, 0x3f,
  0x7c, 0xe9, 0x98, 0x3d, 0x6e, 0xb0, 0xe1, 0xbd, 0x7a, 0x73, 0xac, 0x3d,
  0x0e, 0xe7, 0x89, 0x3e, 0xd0, 0x39, 0xad, 0xbd, 0x01, 0x61, 0x06, 0xbf,
  0x62, 0x98, 0x27, 0xbd, 0x70, 0x36, 0x35, 0x3d, 0x25, 0xb9, 0xeb, 0xbd,
  0x49, 0xc4, 0x0d, 0xbd, 0xa1, 0x4c, 0x03, 0x3d, 0xa3, 0xb8, 0xf8, 0xbd,
  0xf9, 0xb2, 0x25, 0xbe, 0x1e, 0xa3, 0xce, 0xbd, 0xcc, 0x44, 0xa6, 0x3e,
  0x78, 0x65, 0xad, 0xbc, 0x2f, 0x76, 0x51, 0xbe, 0x62, 0x04, 0x37, 0x3e,
  0x80, 0xe3, 0x82, 0xbe, 0x88, 0x52, 0x00, 0x3e, 0x7f, 0xfc, 0xb7, 0x3d,
  0x85, 0x17, 0xe4, 0x3d, 0xf4, 0x28, 0x92, 0x3e, 0xae, 0x59, 0x0a, 0xbe,
  0xe9, 0x71, 0x67, 0x3d, 0x65, 0xd5, 0x66, 0xbb, 0x9c, 0x29, 0x0d, 0x3f,
  0x95, 0xca, 0x9c, 0x3d, 0x89, 0x68, 0x82, 0x3e, 0x31, 0x1d, 0x77, 0xba,
  0x2f, 0x99, 0xa1, 0xbd, 0x75, 0xaa, 0x36, 0x3e, 0x4c, 0x26, 0xa4, 0xbe,
  0x43, 0x8d, 0x8f, 0xbd, 0x8f, 0xef, 0xab, 0xbe, 0x72, 0x9d, 0x94, 0xbe,
  0x4d, 0xf8, 0x7c, 0x3e, 0xf5, 0x86, 0xcc, 0x3d, 0xc9, 0x39, 0x3a, 0x3e,
  0x09, 0xe8, 0x67, 0x3e, 0x2b, 0x24, 0x15, 0x3d, 0x14, 0x0d, 0xa2, 0xbd,
  0xd3, 0x8c, 0x0f, 0xbd, 0x68, 0x4e, 0x5b, 0x3e, 0x0c, 0x4e, 0x83, 0x3e,
  0x83, 0xdb, 0xc2, 0x3d, 0x1a, 0x5c, 0x8b, 0x3e, 0xd8, 0x8c, 0xc1, 0xbe,
  0xdb, 0x6d, 0x79, 0xbe, 0x64, 0xe1, 0x06, 0x3e, 0x54, 0x2b, 0x28, 0x3d,
  0xc4, 0xb8, 0x20, 0x3e, 0x1e, 0x6b, 0x4b, 0xbe, 0x89, 0x7d, 0x36, 0x3d,
  0x1a, 0xae, 0x84, 0xbe, 0x0a, 0xbf, 0x44, 0xbd, 0x23, 0x0a, 0x6e, 0xbe,
  0xaa, 0x14, 0x84, 0x3e, 0x2f, 0xf0, 0xb4, 0x3e, 0xd4, 0x4a, 0x3c, 0xbd,
  0xf6, 0x4c, 0x86, 0x3e, 0x81, 0xa5, 0x80, 0xbe, 0xb7, 0x0a, 0xf2, 0x3e,
  0x24, 0x69, 0xec, 0x3d, 0x28, 0x40, 0x1d, 0x3e, 0xb0, 0xc4, 0x5e, 0xbe,
  0x02, 0x77, 0x0c, 0xbe, 0xec, 0x21, 0x73, 0xbd, 0xa2, 0x37, 0x0b, 0x3e,
  0x92, 0xe6, 0x83, 0xbe, 0x42, 0xbe, 0x2a, 0x3e, 0xde, 0xb0, 0x79, 0x3e,
  0xf2, 0xca, 0x9c, 0xbe, 0xa7, 0xae, 0x85, 0x3e, 0x73, 0x18, 0x5b, 0xbd,
  0xfb, 0x0c, 0x83, 0x3e, 0xfc, 0x35, 0x1b, 0xbb, 0x31, 0x7b, 0x2e, 0xbe,
  0xef, 0xaf, 0x77, 0x3e, 0x98, 0x01, 0xf4, 0x3b, 0xe4, 0xb7, 0xe7, 0x3e,
  0xef, 0x35, 0x9e, 0x3c, 0x19, 0x24, 0x5f, 0x3c, 0x2c, 0xf4, 0x6d, 0xbe,
  0xe8, 0xdb, 0x6b, 0x3e, 0x59, 0xd7, 0x53, 0x3e, 0xe8, 0xa4, 0x08, 0xbd,
  0x5f, 0xdb, 0x5b, 0xbc, 0x1e, 0xd8, 0x05, 0x3e, 0xcd, 0x3a, 0xa2, 0x3e,
  0x1f, 0x2c, 0xa7, 0xbe, 0x35, 0x01, 0x22, 0x3e, 0xa5, 0xf7, 0xa0, 0x3e,
  0xa6, 0xe2, 0x31, 0xbd, 0xc8, 0xa8, 0xe6, 0xbc, 0xea, 0x68, 0xb5, 0x3d,
  0xd4, 0x62, 0xd9, 0xbd, 0x7d, 0x19, 0x3f, 0xbe, 0x3d, 0xd2, 0x80, 0xbe,
  0x8c, 0x80, 0x28, 0x3e, 0xfa, 0xbc, 0x33, 0x3e, 0x91, 0xc4, 0x6e, 0x3e,
  0xd1, 0xe7, 0x6a, 0x3e, 0x3d, 0x55, 0xa9, 0xbe, 0xcc, 0xd8, 0xa3, 0xbd,
  0xd2, 0x4c, 0x9a, 0x3b, 0xfa, 0x24, 0x06, 0x3b, 0x1b, 0x54, 0xb2, 0x3e,
  0xa3, 0x2b, 0x9d, 0xbe, 0xd5, 0x3b, 0x45, 0x3e, 0x38, 0x43, 0x84, 0xbe,
  0xe5, 0x11, 0x34, 0xbe, 0x7e, 0xa5, 0x86, 0xbd, 0x75, 0x95, 0x88, 0xbd,
  0x45, 0x68, 0x2e, 0x3e, 0xf3, 0x99, 0xdf, 0x3d, 0x0f, 0xc1, 0x35, 0x3d,
  0x4c, 0x57, 0x31, 0x3d, 0x65, 0x4a, 0x1a, 0x3e, 0x2e, 0x14, 0x84, 0x3e,
  0xac, 0xad, 0x28, 0x3e, 0x41, 0xe4, 0x51, 0x3e, 0x5b, 0xf7, 0x78, 0x3e,
  0x1a, 0xab, 0x41, 0xbe, 0x01, 0xe9, 0x42, 0x3d, 0xa4, 0x08, 0x0a, 0xbf,
  0xc7, 0xc5, 0x5e, 0x3d, 0x6e, 0xf2, 0x31, 0x3e, 0x30, 0x76, 0x41, 0x3e,
  0xff, 0x34, 0xac, 0x3d, 0x43, 0x80, 0xc7, 0xbd, 0x7f, 0x85, 0xe7, 0xbd,
  0x2f, 0x33, 0xa9, 0xbe, 0x6f, 0x67, 0xda, 0x3c, 0xb7, 0x86, 0x90, 0x3e,
  0xba, 0xb0, 0xad, 0x3e, 0xe2, 0x55, 0x3f, 0xbe, 0xea, 0xf2, 0xb7, 0x3e,
  0x0d, 0x8f, 0x8f, 0x3d, 0x13, 0x69, 0xc5, 0xbe, 0x7c, 0x8a, 0x4b, 0x3d,
  0x79, 0x3d, 0x0a, 0xbd, 0x81, 0x18, 0x86, 0x3d, 0x09, 0x3b, 0x8e, 0x3e,
  0x32, 0x98, 0x75, 0x3d, 0x09, 0x88, 0x55, 0x3d, 0x8f, 0xd3, 0x89, 0xbd,
  0xde, 0xdf, 0x73, 0x3e, 0x4d, 0x39, 0x8a, 0x3d, 0x97, 0xe9, 0x1b, 0x3e,
  0x6a, 0x98, 0x31, 0xbe, 0xf7, 0x1e, 0x53, 0x3e, 0xb8, 0x6a, 0xc4, 0x3e,
  0x21, 0x57, 0xac, 0x3d, 0x70, 0xd2, 0x28, 0xbe, 0xc6, 0xce, 0xa8, 0xbe,
  0x3a, 0xf0, 0x81, 0x3e, 0x25, 0x0d, 0x60, 0xbd, 0xd8, 0x30, 0x80, 0xbd,
  0x65, 0x34, 0xca, 0x3d, 0x45, 0x75, 0x1e, 0x3e, 0x77, 0xec, 0x16, 0x3e,
  0x69, 0x18, 0xda, 0xbe, 0xee, 0xc9, 0x8a, 0x3d, 0x0c, 0xc6, 0x84, 0x3d,
  0x3a, 0x21, 0x3d, 0x3c, 0xe5, 0xb8, 0x89, 0x3e, 0x46, 0x4b, 0xc7, 0xbd,
  0xff, 0xd0, 0xa5, 0x3d, 0xc2, 0x99, 0x90, 0x3d, 0xb4, 0x34, 0x21, 0x3f,
  0x28, 0x63, 0x14, 0xbe, 0xea, 0xed, 0xb5, 0x3d, 0xa4, 0x4c, 0x14, 0x3e,
  0x00, 0x38, 0x42, 0xbe, 0xde, 0xb4, 0x74, 0xbe, 0x91, 0xa3, 0x31, 0xbe,
  0x0d, 0x16, 0xe6, 0x3d, 0xb2, 0xc3, 0xb9, 0x3d, 0xee, 0x9a, 0xa4, 0x3e,
  0x4c, 0x8c, 0xb0, 0x3e, 0x30, 0x0c, 0x4b, 0x3e, 0x1d, 0x16, 0x23, 0xbd,
  0xac, 0x21, 0xcb, 0x3d, 0xd9, 0xca, 0x72, 0x3d, 0x30, 0x8f, 0x6e, 0x3e,
  0xfe, 0xe8, 0x93, 0xbd, 0x43, 0xfb, 0xa7, 0xbd, 0x82, 0x8a, 0x00, 0xbf,
  0xe8, 0xbe, 0x97, 0x3e, 0x4c, 0xdf, 0x8c, 0xbe, 0x28, 0x95, 0xaf, 0x3e,
  0x91, 0xf2, 0x43, 0xbd, 0x3e, 0x32, 0x72, 0x3d, 0xcd, 0xa6, 0xf1, 0x3d,
  0x54, 0x8e, 0xbd, 0x3d, 0x0e, 0xae, 0xbe, 0xbd, 0xfd, 0x36, 0x45, 0xbd,
  0xb0, 0x10, 0x34, 0x3e, 0x06, 0xc8, 0xfd, 0xba, 0x17, 0x5b, 0x45, 0x3e,
  0x9f, 0x3e, 0x62, 0x3d, 0xbe, 0x8b, 0xa3, 0x3e, 0x35, 0xe1, 0x46, 0xbe,
  0xf5, 0xbf, 0x32, 0x3d, 0xca, 0x99, 0x1c, 0x3e, 0xb2, 0xa5, 0xf7, 0x3e,
  0x60, 0x90, 0x98, 0xbe, 0x3a, 0xde, 0xff, 0xff, 0x04, 0x00, 0x00, 0x00,
  0x00, 0x01, 0x00, 0x00, 0xdf, 0x29, 0xd3, 0xbc, 0x98, 0xcf, 0x34, 0x3e,
  0xc5, 0x56, 0x83, 0x3e, 0x61, 0x06, 0x16, 0xbe, 0x94, 0xb7, 0x95, 0xbd,
  0xa5, 0x0b, 0x11, 0xbe, 0xd8, 0xdf, 0xe4, 0x3d, 0x64, 0x85, 0xf1, 0x3d,
  0x88, 0xf3, 0x2d, 0x3e, 0x0a, 0x35, 0x18, 0x3e, 0xb6, 0xc3, 0x54, 0xbe,
  0x1b, 0x48, 0xde, 0x3d, 0x4a, 0xf7, 0x47, 0x3c, 0xea, 0x9d, 0x21, 0x3e,
  0x52, 0x32, 0xb5, 0xbd, 0xe6, 0x34, 0xd9, 0x3d, 0xa6, 0xd6, 0x92, 0xbd,
  0x57, 0x73, 0x23, 0x3c, 0x93, 0x82, 0xf5, 0xbd, 0xe0, 0x64, 0xf6, 0x3d,
  0xfc, 0x03, 0x25, 0x3e, 0x07, 0x55, 0x9a, 0x3b, 0x6f, 0x1b, 0x2e, 0xbe,
  0x90, 0x3e, 0xd5, 0x3c, 0xa0, 0x37, 0x9f, 0xbc, 0x38, 0x84, 0x05, 0x3d,
  0xc1, 0x95, 0x7a, 0x3e, 0x6a, 0xdd, 0xd5, 0x3d, 0x7e, 0xc0, 0xf7, 0x3d,
  0x57, 0xf7, 0x8e, 0xbd, 0xc0, 0xbd, 0x43, 0x3e, 0xbe, 0xcb, 0x70, 0xbd,
  0x8e, 0x65, 0x19, 0x3e, 0x21, 0xad, 0x3a, 0xbc, 0x71, 0xab, 0x96, 0x3a,
  0xa8, 0xa4, 0x41, 0xbe, 0x38, 0xb3, 0x55, 0x3d, 0x7f, 0x41, 0xe0, 0x3d,
  0xd9, 0x92, 0x3a, 0x3e, 0x81, 0x90, 0x6b, 0xbe, 0x67, 0xa1, 0x6c, 0xbe,
  0x85, 0x6e, 0x3c, 0xbe, 0x0a, 0x56, 0xe8, 0x3d, 0x47, 0x44, 0x75, 0xbe,
  0x90, 0x3f, 0x32, 0xbd, 0x57, 0x63, 0x1e, 0xbd, 0x67, 0x57, 0xa1, 0xbd,
  0xfc, 0x69, 0x49, 0xbe, 0x07, 0xdb, 0x8a, 0x3c, 0x21, 0x30, 0x31, 0xbe,
  0x4b, 0x8f, 0xea, 0xbc, 0x54, 0xa0, 0x7e, 0x3e, 0x34, 0x0d, 0xe0, 0x3c,
  0x8d, 0x86, 0xbe, 0xbd, 0x31, 0x5b, 0x35, 0x3e, 0x9b, 0xaf, 0x15, 0x3e,
  0x51, 0xdc, 0xc0, 0x3d, 0xe7, 0xcc, 0x90, 0xbd, 0x4d, 0x72, 0xa1, 0x3d,
  0xc7, 0x75, 0x56, 0xbe, 0xe6, 0xeb, 0xd3, 0x3d, 0xdb, 0x42, 0xf2, 0x3d,
  0x13, 0xab, 0xd2, 0x3d, 0x83, 0x9d, 0x64, 0xbd, 0x46, 0xdf, 0xff, 0xff,
  0x04, 0x00, 0x00, 0x00, 0x80, 0x00, 0x00, 0x00, 0x2d, 0x29, 0x0c, 0xbd,
  0xda, 0x6f, 0x95, 0x3d, 0xb7, 0x1b, 0xa7, 0x3d, 0x0f, 0x01, 0x49, 0x3d,
  0x5c, 0x50, 0x29, 0x3e, 0x0e, 0xc8, 0x08, 0xbe, 0xcb, 0x53, 0x19, 0x3e,
  0xae, 0x67, 0xa0, 0xba, 0x7e, 0x79, 0x42, 0x3e, 0xab, 0x61, 0xe3, 0x3c,
  0x57, 0x1d, 0xee, 0x3d, 0xb6, 0x6f, 0x77, 0x3e, 0xd4, 0x93, 0xf4, 0xbd,
  0x6e, 0x38, 0x63, 0x3d, 0xac, 0x44, 0xfd, 0x3d, 0x42, 0x81, 0x8e, 0xbd,
  0x2c, 0xe4, 0x64, 0x3e, 0x99, 0xcb, 0x10, 0x3c, 0x0c, 0x18, 0xda, 0x3c,
  0xdf, 0x61, 0x11, 0x3d, 0x8b, 0x73, 0x2b, 0xbd, 0xdd, 0x02, 0x24, 0x3c,
  0xd8, 0x58, 0xb2, 0x3c, 0xc2, 0xaa, 0x58, 0x3e, 0x10, 0xa2, 0xb9, 0xbd,
  0x97, 0x39, 0x60, 0x3e, 0x38, 0x0f, 0xf2, 0x3c, 0x0d, 0x26, 0xa4, 0xbc,
  0xae, 0x39, 0xcb, 0x3c, 0xb9, 0x48, 0x19, 0x3e, 0xa4, 0x67, 0x9b, 0xbd,
  0xff, 0xba, 0x4a, 0xbd, 0xd2, 0xdf, 0xff, 0xff, 0x04, 0x00, 0x00, 0x00,
  0x14, 0x00, 0x00, 0x00, 0x75, 0x6f, 0x5c, 0x3e, 0xda, 0x48, 0x3c, 0xbe,
  0x38, 0x75, 0xb8, 0x3d, 0x4f, 0xab, 0x55, 0xbb, 0x11, 0x09, 0x25, 0xbe,
  0xf2, 0xdf, 0xff, 0xff, 0x04, 0x00, 0x00, 0x00, 0x00, 0x20, 0x00, 0x00,
  0xc9, 0xfd, 0xa1, 0x3d, 0xc2, 0xda, 0x8e, 0xbe, 0x5c, 0xfe, 0xb8, 0xbe,
  0x22, 0x3d, 0xfb, 0x3d, 0x3d, 0xf6, 0x10, 0x3d, 0x32, 0x83, 0x8b, 0x3e,
  0x01, 0xaf, 0xaf, 0xbe, 0x79, 0x86, 0x33, 0xbe, 0x89, 0xdc, 0xaf, 0xbe,
  0x35, 0xed, 0x9d, 0xbe, 0x15, 0xd0, 0xb0, 0x3c, 0x8c, 0xe2, 0x4d, 0xbe,
  0x0d, 0x08, 0x2c, 0xbc, 0xe2, 0x33, 0x6f, 0xbe, 0xd1, 0xf1, 0xe1, 0xbd,
  0xf7, 0xa8, 0x06, 0xbe, 0xfa, 0xcf, 0x41, 0x3e, 0xd5, 0x53, 0x3b, 0x3c,
  0x8e, 0xdc, 0xbe, 0xbe, 0xcb, 0x90, 0xf8, 0x3c, 0x7e, 0x35, 0x1d, 0x3d,
  0x4b, 0x1d, 0xae, 0xbd, 0x33, 0x13, 0xa2, 0x3c, 0x25, 0x38, 0x11, 0x3e,
  0x21, 0xc9, 0x7c, 0xb9, 0x43, 0xd0, 0xe3, 0x3d, 0xc6, 0x53, 0x8e, 0x3d,
  0x07, 0x83, 0x64, 0xbe, 0xba, 0x84, 0xee, 0x3d, 0x1f, 0xd2, 0xa0, 0x3d,
  0x97, 0x06, 0x53, 0xbe, 0x31, 0x9a, 0x8c, 0x3e, 0x08, 0xb3, 0x5d, 0xbd,
  0x8c, 0x3e, 0x53, 0x3e, 0x37, 0x7f, 0xb4, 0x3e, 0xc0, 0x35, 0xa8, 0xbe,
  0x54, 0xa6, 0x88, 0x3e, 0xcf, 0xf4, 0x82, 0x3d, 0x91, 0x6e, 0x1c, 0xbf,
  0x06, 0xce, 0x37, 0x3e, 0x06, 0xb6, 0xc2, 0xbd, 0x22, 0xa5, 0x6d, 0x3e,
  0xeb, 0x5c, 0x69, 0x3d, 0x15, 0x2c, 0x3a, 0xbe, 0x22, 0xf2, 0x35, 0x3e,
  0xec, 0xf9, 0xbe, 0xbe, 0x56, 0x6a, 0x9d, 0x3e, 0xc2, 0x93, 0xe7, 0xbc,
  0xe4, 0xb6, 0x2b, 0xbe, 0x88, 0x5a, 0x52, 0x3d, 0xf4, 0x3e, 0xf4, 0x3d,
  0xad, 0x18, 0x9e, 0xbe, 0xf4, 0xfe, 0xbb, 0xbb, 0x9a, 0x0c, 0x2e, 0x3e,
  0x43, 0x1c, 0xc9, 0xbe, 0xe0, 0x71, 0x1b, 0xbd, 0x75, 0xd8, 0xc2, 0x3d,
  0xb0, 0x36, 0x49, 0xbe, 0x92, 0xcc, 0x1f, 0xbd, 0xbe, 0xf3, 0x02, 0x3e,
  0x00, 0x29, 0x8c, 0xbd, 0x2e, 0xc9, 0x89, 0xbd, 0x27, 0x45, 0xee, 0xbd,
  0xc7, 0x7d, 0x8c, 0xbd, 0x59, 0xbe, 0xf3, 0xbd, 0x65, 0x68, 0x3e, 0x3e,
  0x61, 0xa5, 0x2b, 0xbd, 0x32, 0x9f, 0xa7, 0x3e, 0xe4, 0x8c, 0x67, 0x3e,
  0x1a, 0x59, 0xa0, 0x3d, 0x85, 0x98, 0x47, 0x3e, 0x13, 0x35, 0x87, 0xbe,
  0xcb, 0x7c, 0x1a, 0x3e, 0x66, 0xc9, 0x42, 0xbe, 0xd9, 0x08, 0xec, 0x3c,
  0x09, 0x6f, 0xf6, 0xbd, 0x2c, 0x9b, 0x8f, 0x3e, 0x91, 0x57, 0x8c, 0x3b,
  0xb3, 0xb7, 0x99, 0xbd, 0x85, 0xab, 0x32, 0xbe, 0x08, 0x4a, 0x81, 0x3e,
  0x32, 0xf0, 0xe1, 0x3e, 0x7f, 0xad, 0xcf, 0x3d, 0xd2, 0xb3, 0x30, 0xbe,
  0x61, 0x5d, 0xb8, 0xbc, 0x2b, 0xb5, 0x31, 0xbd, 0x1a, 0xaf, 0x30, 0x3e,
  0x0b, 0xa0, 0xc9, 0x3d, 0x6a, 0x7c, 0x24, 0xbc, 0x75, 0x47, 0x84, 0x3d,
  0xd4, 0x2d, 0x67, 0x3e, 0x6b, 0xda, 0xa7, 0x3c, 0x02, 0x9f, 0x3c, 0x3e,
  0xd8, 0xb2, 0xdf, 0x3d, 0x23, 0x50, 0x00, 0xbe, 0x67, 0x7d, 0x96, 0x3e,
  0x3c, 0x7b, 0xa9, 0x3e, 0xc9, 0xc1, 0xdf, 0x3d, 0x93, 0xa9, 0xa2, 0x3d,
  0x9b, 0xc3, 0x40, 0x3d, 0xab, 0x5f, 0x37, 0x3e, 0xb0, 0x82, 0x53, 0x3e,
  0x40, 0x68, 0x4a, 0xbe, 0x66, 0x95, 0x9b, 0xbd, 0xef, 0x60, 0x51, 0xbe,
  0xee, 0xb2, 0x86, 0x3e, 0x86, 0x57, 0xeb, 0x39, 0xb5, 0xe7, 0x28, 0xbe,
  0x36, 0x3b, 0xea, 0x3d, 0xee, 0x79, 0x5b, 0xbd, 0xfc, 0x71, 0xfd, 0xbd,
  0x84, 0xd5, 0x5a, 0x3e, 0xdd, 0xf9, 0xb0, 0x3c, 0x7e, 0xc8, 0x28, 0xbe,
  0x9f, 0x6d, 0xb5, 0xbd, 0x22, 0x3b, 0x88, 0x3c, 0xd1, 0xa7, 0x77, 0xbd,
  0x5d, 0x5d, 0x2d, 0xbe, 0xc8, 0x4f, 0xd3, 0xbd, 0x67, 0x90, 0xa1, 0xbe,
  0xb9, 0x86, 0x66, 0x3e, 0x3f, 0xb2, 0x33, 0xbe, 0xcd, 0x74, 0xe7, 0xbd,
  0x44, 0xfc, 0xc0, 0x3d, 0x7d, 0x04, 0xfe, 0xbd, 0x8d, 0x30, 0x61, 0xbd,
  0x04, 0x6a, 0x45, 0xbd, 0xa4, 0x76, 0x0c, 0xbd, 0x0f, 0x03, 0xcc, 0x3e,
  0xd8, 0xf1, 0xd5, 0x3d, 0xfd, 0x4a, 0x96, 0xbd, 0xa6, 0x49, 0x40, 0x3e,
  0x13, 0x64, 0x93, 0xbe, 0x0a, 0xcd, 0x80, 0x3e, 0xa5, 0x39, 0xf4, 0xbc,
  0x0e, 0xc0, 0x9b, 0xbe, 0x40, 0x74, 0x93, 0xbd, 0x15, 0x48, 0x43, 0x3c,
  0x02, 0xab, 0x22, 0xbe, 0xdc, 0xcb, 0xc2, 0x3d, 0x70, 0xf7, 0xb4, 0xbd,
  0x75, 0x28, 0x82, 0xbe, 0x4c, 0x1e, 0x05, 0x3b, 0x74, 0xf0, 0x3d, 0xbd,
  0x90, 0x13, 0x18, 0xbe, 0x87, 0xc4, 0xfc, 0xbd, 0x1c, 0x85, 0x37, 0xbe,
  0x84, 0xf2, 0x80, 0x3d, 0x22, 0xf7, 0x00, 0xbf, 0xcf, 0xc3, 0x4d, 0xbe,
  0x06, 0xdb, 0xb5, 0xbd, 0x44, 0x65, 0x91, 0xbe, 0x92, 0x26, 0xaf, 0x3d,
  0xd7, 0xf7, 0x9d, 0xbd, 0x21, 0x4e, 0xbd, 0xbc, 0x72, 0x1b, 0x1f, 0xbd,
  0x48, 0x0b, 0x05, 0x3e, 0x64, 0xe7, 0xd1, 0xbe, 0x93, 0xf5, 0x92, 0x3e,
  0x61, 0x04, 0x5c, 0xbd, 0x5c, 0xa4, 0x95, 0x3a, 0xea, 0x40, 0x08, 0xbd,
  0xf6, 0x8d, 0x97, 0x3d, 0xe2, 0x83, 0x2b, 0x3e, 0xd8, 0x1c, 0x24, 0x3e,
  0x0d, 0xff, 0xea, 0xbe, 0x0f, 0x80, 0xf8, 0x3d, 0xad, 0x11, 0x30, 0x3d,
  0x3c, 0x90, 0x12, 0xbe, 0x3b, 0x7e, 0x88, 0xbb, 0xac, 0xe3, 0xfd, 0xbc,
  0x32, 0xa9, 0x55, 0x3e, 0x13, 0x72, 0x46, 0x3d, 0xa0, 0xbb, 0xb0, 0x3e,
  0x5f, 0xa7, 0x81, 0xbd, 0xb4, 0x8d, 0x91, 0x3e, 0x22, 0x7e, 0x3e, 0x3e,
  0x2b, 0xdf, 0x46, 0x3e, 0x74, 0x6a, 0xc2, 0xbd, 0x5e, 0xce, 0x22, 0xbc,
  0xe9, 0xa1, 0x54, 0xbd, 0x84, 0xb1, 0x27, 0xbe, 0xf3, 0xc8, 0x88, 0x3e,
  0x85, 0xf8, 0x8d, 0xbb, 0x63, 0xca, 0x16, 0xbe, 0x81, 0xc4, 0x84, 0xbd,
  0x5e, 0x05, 0x5f, 0xbe, 0xc9, 0x5f, 0x82, 0x3e, 0x36, 0xdb, 0x62, 0x3d,
  0xa8, 0xa6, 0xfd, 0x3e, 0x54, 0x9b, 0x6e, 0x3e, 0x7e, 0x0a, 0x0a, 0xbe,
  0x6f, 0x40, 0x29, 0x3d, 0x01, 0xeb, 0xd8, 0x3e, 0x07, 0x91, 0x8c, 0xbd,
  0x90, 0x47, 0x8e, 0x3d, 0x49, 0xd1, 0x81, 0xbd, 0x56, 0xea, 0xf9, 0x3d,
  0x53, 0x11, 0x2c, 0x3e, 0x3e, 0xcf, 0x5a, 0x3d, 0x35, 0x06, 0x04, 0x3e,
  0x79, 0x73, 0x16, 0x3e, 0x55, 0xa6, 0xad, 0x3e, 0xab, 0x7a, 0x61, 0xbd,
  0x09, 0x51, 0xc1, 0x3d, 0x6f, 0xc7, 0x2d, 0xbd, 0xbf, 0xda, 0x2a, 0x3e,
  0x6c, 0x61, 0x5c, 0x3e, 0x06, 0xb0, 0x3c, 0x3e, 0x8c, 0xff, 0xc3, 0x3e,
  0xbc, 0x49, 0xff, 0x3c, 0x00, 0x90, 0x4e, 0x3e, 0x55, 0xd4, 0x95, 0xbd,
  0x2d, 0xd3, 0x64, 0xbe, 0x15, 0x3f, 0x7d, 0xbe, 0x5c, 0xd7, 0x83, 0xbe,
  0xe7, 0x9f, 0xb2, 0x3d, 0x13, 0x09, 0xfa, 0xbc, 0xb8, 0xfb, 0xbc, 0x3e,
  0x55, 0x06, 0x03, 0xbe, 0x2c, 0xd2, 0xca, 0x3e, 0x2c, 0x09, 0x91, 0xbc,
  0xc7, 0xf7, 0x26, 0x3d, 0xfe, 0xbb, 0x84, 0x3e, 0x9e, 0xf1, 0x5c, 0x3d,
  0x40, 0x8b, 0x05, 0x3e, 0x1d, 0x40, 0x3d, 0x3c, 0xcd, 0xbc, 0x11, 0xbe,
  0xb7, 0xd1, 0xa2, 0x3d, 0x4a, 0x16, 0x8f, 0x3d, 0x62, 0x36, 0xb6, 0x3d,
  0xa8, 0xde, 0x25, 0xbe, 0x2b, 0xfd, 0xae, 0x3e, 0xe3, 0xb9, 0x98, 0x3d,
  0x18, 0x32, 0x32, 0xbd, 0xe6, 0xb8, 0x8b, 0xbd, 0x7b, 0x6a, 0x30, 0x3d,
  0x2f, 0xa1, 0x23, 0x3e, 0x3b, 0x53, 0xa1, 0xbe, 0x49, 0xe9, 0x24, 0xbe,
  0xe9, 0x22, 0x1a, 0xbd, 0xfc, 0x39, 0x77, 0xbe, 0x3b, 0x36, 0x8f, 0xbe,
  0xe4, 0x85, 0xcf, 0x3e, 0x17, 0xa9, 0x2d, 0xbe, 0x43, 0xa9, 0xdc, 0xbc,
  0x4e, 0x55, 0x83, 0xbd, 0x6d, 0x19, 0x8c, 0x3e, 0xb2, 0x76, 0x13, 0x3f,
  0xe9, 0x00, 0xab, 0x3c, 0x62, 0xd5, 0xe5, 0xbc, 0xd4, 0x3f, 0x52, 0xbe,
  0x25, 0xc4, 0xee, 0xbc, 0xee, 0xdf, 0x06, 0xbd, 0x70, 0x0c, 0x74, 0x3d,
  0x26, 0xb3, 0x88, 0xbe, 0xcc, 0x66, 0xda, 0x3d, 0xa9, 0x0e, 0xa4, 0x3e,
  0xd6, 0xad, 0xca, 0x3d, 0xd2, 0x60, 0x1b, 0xbe, 0xfc, 0xea, 0xa0, 0xbd,
  0x75, 0xe0, 0x29, 0xbd, 0x86, 0xf2, 0xad, 0xbb, 0xf1, 0x1d, 0x14, 0xbe,
  0xc9, 0xc7, 0x24, 0x3d, 0x21, 0xeb, 0x64, 0x3d, 0x32, 0x0f, 0x18, 0xbe,
  0x5c, 0xff, 0xfe, 0x3c, 0x73, 0xd8, 0x4c, 0x3e, 0xfe, 0x53, 0x52, 0x3e,
  0xc6, 0x20, 0x7c, 0xbe, 0x81, 0xda, 0xaa, 0x3d, 0x90, 0xad, 0xd8, 0x3d,
  0x2c, 0x5f, 0x87, 0x3e, 0x06, 0x28, 0x62, 0xbe, 0x27, 0x9c, 0x44, 0x3e,
  0xf5, 0x0b, 0x3c, 0xbe, 0x5b, 0xa5, 0x37, 0xbe, 0x35, 0x1c, 0x87, 0xbd,
  0x87, 0x2b, 0x5f, 0xbe, 0xe1, 0xe1, 0xc4, 0xbd, 0xa1, 0x95, 0x22, 0x3d,
  0xc3, 0xac, 0x06, 0x3f, 0xd9, 0x5e, 0xaa, 0x3c, 0xfd, 0x8e, 0xab, 0x3e,
  0x14, 0x47, 0xfd, 0x3d, 0xab, 0xa5, 0x8c, 0x3e, 0x19, 0xbb, 0xd4, 0x3d,
  0xc5, 0x94, 0xa0, 0x3d, 0x69, 0xc7, 0xa9, 0xbd, 0x7d, 0x89, 0x68, 0xbc,
  0x3c, 0x01, 0x36, 0x3e, 0x3c, 0xe4, 0xcf, 0x3d, 0xd2, 0x85, 0xea, 0x3d,
  0x7f, 0x5e, 0x4c, 0xbe, 0xcf, 0xd8, 0xbb, 0xbe, 0x9f, 0xe2, 0x33, 0x3e,
  0xf4, 0xeb, 0xcd, 0xbd, 0xfd, 0x1f, 0x00, 0xbd, 0x4e, 0x1b, 0xbf, 0xbd,
  0x8b, 0x54, 0xa3, 0x3e, 0x3a, 0x76, 0x57, 0x3e, 0xcb, 0x63, 0x8a, 0xbd,
  0x37, 0xe9, 0x2b, 0xbe, 0xa0, 0x7c, 0x7a, 0xbe, 0x79, 0x2e, 0x61, 0xbd,
  0xc4, 0x4d, 0x5a, 0xbe, 0x61, 0x2c, 0x19, 0x3f, 0x58, 0x13, 0xb5, 0xbd,
  0x65, 0xdd, 0xcb, 0x3d, 0x25, 0xc9, 0xf3, 0x3b, 0x46, 0x96, 0xa7, 0x3e,
  0x72, 0x94, 0xdb, 0x3e, 0xfe, 0xfa, 0xf8, 0x3d, 0x18, 0x44, 0xee, 0x3d,
  0xf3, 0xb2, 0x61, 0x3d, 0xe9, 0x23, 0x3a, 0x3e, 0x2c, 0x21, 0x22, 0x3f,
  0x28, 0xcf, 0xda, 0x3e, 0xaa, 0x74, 0x55, 0xbe, 0xb6, 0xf9, 0x30, 0xbe,
  0x2b, 0x48, 0x89, 0x3e, 0xa3, 0x48, 0x10, 0xbd, 0x03, 0x5d, 0x46, 0x3d,
  0xd4, 0x8e, 0xb2, 0xbd, 0x7f, 0x5c, 0x2a, 0x3e, 0x38, 0x1e, 0x41, 0x3e,
  0x87, 0x39, 0x49, 0x3e, 0x34, 0xf4, 0x5c, 0xbe, 0x9f, 0x78, 0x61, 0x3e,
  0xd8, 0x0e, 0x20, 0x3f, 0xcf, 0x88, 0xd8, 0xbe, 0x5d, 0x76, 0x13, 0x3c,
  0x03, 0xd3, 0x1e, 0xbe, 0x4e, 0x88, 0x06, 0xbd, 0x10, 0x0d, 0x88, 0xbd,
  0xf0, 0x63, 0x10, 0xbe, 0x7d, 0x4f, 0xfc, 0xbe, 0x30, 0xe2, 0x41, 0x3e,
  0x07, 0xb5, 0x85, 0xbe, 0xba, 0x59, 0xc7, 0x3d, 0xee, 0xbf, 0xc9, 0xbc,
  0x29, 0x00, 0x4e, 0x3e, 0x8f, 0x55, 0x8d, 0xbd, 0x1e, 0x29, 0x91, 0x3d,
  0xc2, 0x55, 0x50, 0x3c, 0xd7, 0x15, 0x2f, 0x3e, 0xe9, 0xae, 0x75, 0xbe,
  0x72, 0x70, 0xbe, 0x3e, 0x47, 0xc6, 0x1c, 0x3f, 0xd4, 0x8d, 0x1d, 0xbe,
  0xbc, 0x74, 0x47, 0xbd, 0xa1, 0x00, 0x1c, 0x3d, 0x62, 0x1e, 0x4b, 0xbd,
  0x74, 0x2f, 0x53, 0xbd, 0xb7, 0x5f, 0x89, 0xbd, 0x40, 0xac, 0x97, 0xbe,
  0xe4, 0x12, 0x5c, 0xbd, 0x22, 0x81, 0xd9, 0xbd, 0x51, 0xc0, 0xae, 0x3d,
  0x46, 0xa8, 0xc4, 0x3d, 0x34, 0x76, 0xd2, 0xbd, 0xf0, 0x8b, 0x13, 0x3e,
  0x47, 0x17, 0x38, 0x3e, 0x5a, 0x08, 0x4b, 0x3d, 0xea, 0x71, 0x92, 0x3d,
  0x7a, 0xf4, 0x23, 0xbe, 0xa4, 0x0a, 0xc2, 0x3c, 0xd5, 0x72, 0x1d, 0xbe,
  0x5d, 0x52, 0x4e, 0x3c, 0x47, 0xfe, 0x50, 0xbc, 0x2e, 0xee, 0x95, 0x3d,
  0xa9, 0x23, 0x51, 0x3e, 0xb0, 0x01, 0x84, 0xbe, 0x5d, 0xb6, 0xc7, 0xbe,
  0xe1, 0x5f, 0xd7, 0x3d, 0xde, 0x0b, 0xa4, 0x3e, 0xc8, 0x7e, 0xda, 0xbd,
  0x07, 0x8c, 0x89, 0x3d, 0x05, 0xa2, 0x54, 0x3e, 0x00, 0xe8, 0x69, 0x3e,
  0x48, 0xcf, 0xa5, 0xbe, 0x2c, 0xe1, 0xaf, 0xbd, 0x70, 0xa8, 0xb7, 0x3c,
  0x8b, 0x80, 0x83, 0x3e, 0x5e, 0x4b, 0x44, 0x3d, 0x27, 0xc2, 0x33, 0xbd,
  0x2e, 0xf3, 0x7f, 0xbe, 0x6e, 0x27, 0x8d, 0xbd, 0xd5, 0xd6, 0x54, 0xbe,
  0x55, 0x89, 0x8f, 0xbd, 0xab, 0x15, 0x0f, 0xbd, 0x42, 0x55, 0x86, 0xbc,
  0xfd, 0x39, 0x9d, 0x3e, 0xab, 0x4e, 0xf2, 0xbe, 0xc0, 0x6c, 0x67, 0x3e,
  0x71, 0x25, 0x90, 0xbe, 0xe1, 0x9b, 0x0f, 0xbe, 0x5d, 0x82, 0x0a, 0x3c,
  0x4f, 0x87, 0x6b, 0x3e, 0xea, 0x61, 0x9e, 0xbd, 0x95, 0x57, 0x66, 0x3d,
  0x45, 0xf4, 0xc4, 0x3d, 0x2e, 0x7c, 0x52, 0x3e, 0xd2, 0xf9, 0x53, 0xbe,
  0x3f, 0x8b, 0xf4, 0x3d, 0x2a, 0x31, 0x37, 0xbe, 0x7e, 0xf4, 0xd8, 0x3b,
  0x40, 0x20, 0xcd, 0xbc, 0xb7, 0x5d, 0xdd, 0xbd, 0x90, 0x9d, 0xa8, 0xbc,
  0x31, 0x63, 0x0f, 0x3e, 0xbb, 0x65, 0x37, 0x3e, 0xd1, 0x0b, 0xf6, 0xbe,
  0xcf, 0x9f, 0x27, 0x3d, 0x4b, 0x53, 0x29, 0xbe, 0x7d, 0x53, 0x61, 0xbd,
  0xd5, 0xe8, 0x14, 0xbe, 0xf1, 0x12, 0x8e, 0x3d, 0x3d, 0x1c, 0x73, 0x3c,
  0x5a, 0x73, 0xe8, 0x3c, 0x41, 0x4e, 0x4f, 0x3e, 0x4e, 0xe6, 0x26, 0x3e,
  0xe2, 0x43, 0xfc, 0x3d, 0xb7, 0x2d, 0x49, 0xbe, 0xf1, 0x68, 0xb9, 0xbd,
  0xb9, 0xa6, 0x2b, 0x3e, 0xfb, 0xa8, 0x15, 0xbe, 0x4f, 0x58, 0x39, 0x3d,
  0xbf, 0x74, 0x34, 0xbc, 0x79, 0xac, 0x80, 0x3e, 0xba, 0x84, 0x1d, 0xbe,
  0xe6, 0x6d, 0x81, 0x3e, 0xcb, 0x05, 0xba, 0xbd, 0x55, 0xbf, 0xa4, 0xbb,
  0x76, 0xc7, 0x71, 0x3e, 0xd4, 0xcd, 0xa6, 0xbb, 0xd0, 0x22, 0x38, 0x3e,
  0xd8, 0x59, 0x16, 0xbd, 0x5c, 0xee, 0xad, 0x3e, 0xa6, 0x63, 0x99, 0xbc,
  0xe0, 0xd2, 0x84, 0x3e, 0xe6, 0x95, 0x15, 0x3e, 0xb5, 0xc6, 0x67, 0xbe,
  0x40, 0x82, 0xac, 0x3d, 0x2f, 0xd4, 0x06, 0x3f, 0x64, 0x33, 0x4d, 0x3e,
  0xf7, 0x90, 0xfd, 0xbd, 0x88, 0xe3, 0x4e, 0xbe, 0xb6, 0x50, 0x93, 0x3e,
  0x09, 0x8d, 0x6b, 0x3d, 0xcd, 0xd1, 0x34, 0xbe, 0x78, 0xab, 0x15, 0x3c,
  0x1a, 0x95, 0x9d, 0x3e, 0x89, 0xf2, 0xd0, 0xbd, 0xe6, 0xca, 0xf1, 0xbd,
  0x99, 0x07, 0xde, 0x3d, 0x9d, 0xb0, 0xdd, 0x3d, 0x2a, 0xde, 0xf0, 0x3c,
  0xe5, 0xc7, 0x43, 0x3e, 0x39, 0x27, 0x64, 0x3c, 0xd1, 0xe6, 0x65, 0xbe,
  0x67, 0x31, 0x06, 0x3e, 0x24, 0xcc, 0xbf, 0xbd, 0x05, 0x59, 0xe9, 0x3c,
  0xfc, 0xfd, 0xe6, 0x3d, 0xa9, 0xd2, 0x8b, 0xbe, 0xce, 0x2f, 0xa4, 0x3d,
  0x61, 0xd7, 0x39, 0x3e, 0xb5, 0x90, 0xb2, 0x3d, 0x29, 0xd4, 0xcb, 0x3c,
  0x63, 0x7c, 0xf6, 0x3d, 0x49, 0x14, 0x3d, 0x3e, 0xc1, 0x2c, 0x10, 0x3e,
  0xf5, 0x8c, 0x2f, 0x3e, 0x02, 0x40, 0xa3, 0xbd, 0x28, 0x38, 0x97, 0xbd,
  0xab, 0x8a, 0xae, 0xbe, 0x1a, 0x3f, 0x84, 0x3e, 0x20, 0x7e, 0xad, 0x3e,
  0xf2, 0xae, 0x14, 0x3e, 0x71, 0x86, 0xce, 0x3e, 0x71, 0x50, 0xda, 0x3d,
  0xec, 0x53, 0x8a, 0xbe, 0xe0, 0x82, 0xc1, 0x3e, 0x4a, 0x56, 0x63, 0xbe,
  0xce, 0x33, 0x84, 0xbe, 0x6d, 0xf0, 0x1d, 0x3e, 0x0d, 0x3e, 0xd0, 0xbd,
  0x9c, 0x6b, 0x42, 0x3e, 0x73, 0x74, 0x31, 0x3e, 0x39, 0xea, 0x74, 0x3d,
  0x13, 0x24, 0xe0, 0x3e, 0xf2, 0x6d, 0x79, 0xbe, 0x3b, 0xc9, 0x22, 0x3e,
  0xe2, 0x3e, 0x9e, 0xbe, 0xd7, 0x31, 0xaa, 0xbe, 0x78, 0xe9, 0xbc, 0x3c,
  0x43, 0x2d, 0x7d, 0x3d, 0x90, 0xe8, 0x97, 0xbd, 0x72, 0x22, 0x3e, 0x3c,
  0x1d, 0x05, 0x2c, 0xbe, 0xc6, 0x30, 0xa6, 0xbd, 0x7a, 0x9a, 0x2a, 0xbc,
  0xc8, 0xc7, 0xdc, 0x3d, 0x81, 0x56, 0x5d, 0x3d, 0x30, 0x79, 0x37, 0x3d,
  0xc7, 0x83, 0x6b, 0xbd, 0xe0, 0x72, 0x84, 0xbc, 0x4d, 0x9f, 0x6b, 0x3b,
  0x96, 0x8a, 0x14, 0xbe, 0x50, 0xa9, 0xd4, 0x3d, 0xd2, 0x6d, 0x08, 0xbe,
  0xa5, 0xb2, 0x39, 0xbc, 0x2f, 0xab, 0x99, 0x3e, 0xda, 0x28, 0x40, 0x3b,
  0x26, 0xe6, 0xc1, 0xbd, 0xbd, 0x0f, 0xe5, 0xb8, 0x56, 0x39, 0xc5, 0x3e,
  0x6e, 0xec, 0x67, 0xbd, 0xb2, 0x52, 0x6c, 0x3e, 0x44, 0x7f, 0xf5, 0x3e,
  0xa8, 0x9a, 0x07, 0x3d, 0x46, 0x87, 0xfd, 0x3d, 0xbe, 0x28, 0xea, 0x3d,
  0x30, 0x97, 0xd8, 0x3e, 0xe8, 0x25, 0x18, 0x3e, 0x62, 0x7e, 0x03, 0x3d,
  0x88, 0x4c, 0xd8, 0xbc, 0xb7, 0x4e, 0x27, 0xbe, 0xdb, 0xaa, 0xc5, 0x3e,
  0xbc, 0xbc, 0xaf, 0x3d, 0xf2, 0x8a, 0x29, 0x3e, 0xaa, 0x57, 0x3d, 0xbd,
  0x74, 0x8e, 0x07, 0x3d, 0x0e, 0x74, 0x92, 0xbd, 0x37, 0x26, 0x1a, 0xbc,
  0xbf, 0xa3, 0x91, 0x3d, 0x51, 0x3d, 0x89, 0x3e, 0xe2, 0x5c, 0x0d, 0x3e,
  0xbe, 0x52, 0x82, 0xbd, 0xd9, 0xa3, 0x89, 0x3e, 0xc1, 0xab, 0x9a, 0xbd,
  0xd1, 0x67, 0x17, 0x3d, 0x35, 0x97, 0x61, 0x3e, 0xd4, 0x86, 0x2c, 0xbd,
  0x45, 0x9a, 0x28, 0x3e, 0xd8, 0x03, 0xd9, 0xbd, 0x34, 0xeb, 0xa3, 0xbd,
  0x4e, 0x34, 0xdf, 0xbd, 0xed, 0x29, 0x0b, 0x3f, 0x46, 0xac, 0xd5, 0xbd,
  0x57, 0x9c, 0x56, 0x3e, 0x0b, 0xb7, 0xec, 0xbd, 0x6a, 0xce, 0x7f, 0x3d,
  0xb7, 0xf1, 0x65, 0xbc, 0x4b, 0x3e, 0x28, 0xbe, 0xee, 0x00, 0x3b, 0xbe,
  0x91, 0x53, 0xc0, 0xbd, 0x2e, 0x26, 0xef, 0xbd, 0xa0, 0x01, 0x01, 0xbd,
  0xb7, 0x3e, 0x35, 0x3e, 0x9d, 0xd7, 0x25, 0xbe, 0x61, 0x5a, 0x8b, 0x3e,
  0x8a, 0x2d, 0x35, 0x3c, 0x70, 0xce, 0x00, 0xbe, 0x86, 0xa9, 0xf5, 0x3e,
  0xb0, 0x7d, 0xe5, 0xbc, 0x9a, 0xc2, 0x9c, 0x3e, 0x57, 0xdf, 0x5f, 0x3e,
  0x86, 0x32, 0x26, 0x3d, 0x9d, 0xba, 0x80, 0xbd, 0x77, 0x73, 0xbf, 0x3d,
  0xac, 0x1b, 0x9f, 0x3d, 0x24, 0x57, 0x7a, 0x3e, 0x94, 0x1a, 0xf4, 0xbd,
  0x4e, 0x14, 0xfd, 0x3e, 0x0d, 0xe7, 0xa3, 0x3e, 0xfa, 0x84, 0x57, 0x3d,
  0x4e, 0x69, 0x30, 0x3e, 0x2c, 0x90, 0x8b, 0x3d, 0xe6, 0xe4, 0x54, 0x3d,
  0x28, 0x7d, 0xea, 0xbd, 0xe5, 0xf6, 0x80, 0xbd, 0xee, 0xd8, 0xd9, 0xbd,
  0xa9, 0x7c, 0x87, 0xbe, 0x74, 0x92, 0x76, 0x3e, 0x2b, 0x67, 0x97, 0xbd,
  0x44, 0x27, 0x50, 0xbd, 0x1e, 0xc0, 0x45, 0xbe, 0x0d, 0x83, 0xb7, 0x3d,
  0x03, 0xb3, 0xa4, 0xbd, 0xfc, 0xf4, 0x8a, 0x3d, 0xf2, 0x47, 0x9a, 0xbd,
  0x71, 0x1e, 0x15, 0xbe, 0x26, 0x26, 0xad, 0x3d, 0xc2, 0xb1, 0x09, 0xbe,
  0xf2, 0x43, 0x3c, 0x3e, 0x52, 0x0e, 0x06, 0x3e, 0x5c, 0xb4, 0x69, 0xbe,
  0x44, 0x5b, 0x7b, 0x3e, 0xbf, 0x65, 0x32, 0xbe, 0x4b, 0xfd, 0xa1, 0x3e,
  0x3c, 0x54, 0x31, 0x3e, 0xeb, 0x47, 0x53, 0x3d, 0x3e, 0xbc, 0x7a, 0xbe,
  0x26, 0xac, 0xc5, 0x3d, 0x5e, 0x8b, 0x77, 0x3e, 0x59, 0xf5, 0xfc, 0x3d,
  0xef, 0xe7, 0x86, 0x3c, 0x97, 0x72, 0xe9, 0x3e, 0xa3, 0x4e, 0x25, 0x3e,
  0xa9, 0x23, 0x4a, 0x3e, 0xc5, 0x6b, 0x18, 0xbe, 0x71, 0x73, 0x71, 0xbe,
  0x1a, 0x8a, 0xb9, 0x3d, 0xe2, 0x7f, 0x04, 0x3e, 0xe3, 0xef, 0x86, 0xbd,
  0x30, 0xe6, 0xa7, 0x3c, 0xf4, 0x33, 0x8a, 0x3e, 0x4a, 0xea, 0x37, 0xbc,
  0x54, 0xea, 0xad, 0x3e, 0x2e, 0xe7, 0x94, 0xbb, 0x18, 0x1e, 0x8c, 0x3e,
  0x13, 0x9f, 0x39, 0x3e, 0xe2, 0x36, 0xe5, 0x3e, 0x7b, 0x1b, 0x24, 0xbe,
  0xc2, 0x62, 0x4d, 0xbc, 0x1a, 0x4f, 0x3c, 0xbe, 0xee, 0x99, 0x43, 0xbd,
  0xf2, 0x79, 0x18, 0x3d, 0xdc, 0x3f, 0x90, 0x3e, 0xab, 0x3b, 0x73, 0x3e,
  0xe1, 0x76, 0xa8, 0x3e, 0x2b, 0xe7, 0x2c, 0xbd, 0x25, 0xa7, 0x14, 0x3d,
  0x07, 0x80, 0xb4, 0x3e, 0x77, 0xdc, 0x1d, 0xbd, 0x01, 0x11, 0xb5, 0xbc,
  0x87, 0xf5, 0xd9, 0x3d, 0x8d, 0x05, 0x46, 0xbd, 0xe6, 0x21, 0x41, 0x3d,
  0x70, 0x93, 0x9c, 0x3d, 0xeb, 0xc7, 0xd3, 0xbd, 0x91, 0x4d, 0x9d, 0xbd,
  0x81, 0xc3, 0x66, 0x3e, 0xb8, 0x29, 0x94, 0xbe, 0x5f, 0xb2, 0x66, 0xbe,
  0xec, 0x03, 0xe5, 0xbc, 0x07, 0x14, 0xae, 0x3c, 0x4a, 0x42, 0xa3, 0xbe,
  0xdc, 0xb3, 0xf6, 0xbd, 0x75, 0x94, 0x85, 0x3e, 0x5d, 0x0e, 0x98, 0xbe,
  0xf9, 0x86, 0x18, 0xbe, 0xc5, 0x1b, 0x8b, 0x3e, 0xaf, 0x16, 0x8a, 0x3d,
  0x28, 0x1c, 0xf4, 0x3e, 0xd8, 0x20, 0xe0, 0xbe, 0x2d, 0x61, 0x01, 0x3c,
  0x4c, 0x3d, 0x55, 0x3e, 0x36, 0x2d, 0x05, 0x3e, 0x1e, 0x5a, 0x20, 0x3d,
  0x6b, 0x11, 0x5b, 0x3d, 0x23, 0x28, 0x7f, 0xbd, 0x33, 0xf6, 0xe4, 0x3d,
  0xde, 0xf7, 0x12, 0x3e, 0x37, 0xb2, 0x12, 0x3d, 0x17, 0x90, 0x91, 0xbb,
  0xf7, 0x9b, 0xda, 0xbe, 0xed, 0x5d, 0x67, 0x3e, 0x59, 0x53, 0x55, 0x3e,
  0x77, 0x7f, 0x43, 0xbe, 0xe2, 0xc6, 0xff, 0x3e, 0x93, 0x46, 0x75, 0x3d,
  0x97, 0xf1, 0x34, 0xbe, 0xc6, 0xb4, 0x4a, 0x3e, 0xbf, 0x5e, 0xee, 0x3d,
  0xed, 0xde, 0xaa, 0xbe, 0xa0, 0xff, 0xd5, 0xbd, 0x71, 0x49, 0xc5, 0xbe,
  0xbc, 0xda, 0x81, 0xbc, 0x0c, 0xf9, 0x0b, 0xbe, 0x75, 0xb3, 0x58, 0xbe,
  0x1b, 0x27, 0xba, 0x3e, 0x17, 0xd3, 0xe2, 0xbc, 0x88, 0xca, 0x51, 0x3e,
  0x8e, 0xd5, 0xd9, 0x3c, 0x5c, 0x79, 0x1e, 0xbe, 0x7e, 0xc4, 0x1c, 0xbe,
  0xbe, 0x49, 0x87, 0xbc, 0x3e, 0xaf, 0xe2, 0x3e, 0xc7, 0x4a, 0xfc, 0xbc,
  0xfa, 0xb1, 0x32, 0x3e, 0x79, 0x67, 0xa6, 0x3e, 0x1c, 0xb6, 0xa4, 0xbd,
  0x4d, 0xa9, 0xcb, 0x3d, 0x69, 0x7e, 0x04, 0xbd, 0x61, 0xd3, 0xe6, 0x3d,
  0x91, 0xec, 0x8c, 0xbe, 0x06, 0x93, 0x5e, 0x3d, 0xef, 0xb3, 0xeb, 0x3e,
  0x9b, 0xe1, 0x50, 0x3e, 0x0f, 0xf3, 0xa8, 0xbd, 0x38, 0xaf, 0x28, 0xbe,
  0x43, 0xaf, 0x2a, 0xbe, 0xff, 0x04, 0xef, 0x3e, 0xe2, 0x8e, 0x9d, 0x3d,
  0xd7, 0xb5, 0x68, 0x3e, 0x5f, 0x65, 0x26, 0xbe, 0xaa, 0x8d, 0xde, 0x3e,
  0xeb, 0x46, 0x58, 0x3e, 0x6d, 0xd0, 0xc6, 0x3e, 0x64, 0xfb, 0x05, 0x3f,
  0x9b, 0x7c, 0x75, 0xbe, 0x6e, 0x9f, 0xa5, 0x3d, 0x3c, 0xea, 0x23, 0x3d,
  0x25, 0xa7, 0x22, 0x3f, 0x6d, 0xf6, 0x21, 0x3d, 0x17, 0xfe, 0x0b, 0xbe,
  0x24, 0x97, 0x23, 0xbd, 0xd9, 0x31, 0xf5, 0x3b, 0x44, 0x83, 0x1c, 0x3e,
  0x38, 0xf3, 0x76, 0xbe, 0x9d, 0x58, 0xb2, 0x3d, 0x07, 0x2e, 0x30, 0xbd,
  0x72, 0xba, 0x22, 0xbd, 0xe5, 0xf7, 0x6d, 0x3c, 0x59, 0xb4, 0xd8, 0xbd,
  0x9f, 0xc6, 0x26, 0xbd, 0xaa, 0xc1, 0xb9, 0xbd, 0xc9, 0x0e, 0x60, 0xbe,
  0xc2, 0xb0, 0x18, 0x3c, 0xf8, 0x45, 0x8b, 0xbc, 0xa6, 0x57, 0x68, 0xbe,
  0x59, 0x89, 0x51, 0xbe, 0xa0, 0x50, 0xa2, 0x3e, 0x45, 0x3b, 0xd1, 0x3b,
  0xfe, 0x93, 0xa6, 0xbe, 0x62, 0xa2, 0x9d, 0x3b, 0x25, 0x64, 0x19, 0xbd,
  0x26, 0x07, 0x25, 0x3e, 0x6b, 0x0b, 0x18, 0x3f, 0x9a, 0x75, 0x6d, 0x3e,
  0x90, 0xff, 0x09, 0xbe, 0xac, 0x98, 0x4f, 0xbe, 0x21, 0x45, 0x53, 0x3d,
  0x3d, 0x2a, 0x2c, 0xbe, 0xbd, 0xb7, 0xe6, 0xbc, 0x4b, 0xb0, 0x39, 0x3d,
  0x70, 0x67, 0x01, 0xbe, 0x8d, 0x54, 0x72, 0xbc, 0x98, 0x3e, 0x33, 0x3e,
  0x89, 0x93, 0x96, 0x3d, 0xba, 0xf4, 0x13, 0xbd, 0x86, 0xf6, 0xda, 0x3e,
  0x2a, 0xfd, 0x91, 0x3e, 0x47, 0x2b, 0x18, 0x3e, 0x70, 0x7a, 0xc4, 0x3e,
  0xcb, 0x13, 0xaa, 0xbd, 0x0a, 0xcf, 0x0e, 0xbb, 0x98, 0x13, 0x96, 0xbd,
  0x0e, 0xcc, 0x46, 0x3e, 0x0a, 0xa6, 0xce, 0xbd, 0x24, 0xa7, 0x55, 0xbe,
  0x81, 0x1b, 0xb0, 0xbd, 0x42, 0xc8, 0xa8, 0x3d, 0xcf, 0xb6, 0x59, 0x3e,
  0xe5, 0xe6, 0xb4, 0x3d, 0x89, 0x9b, 0x35, 0x3e, 0xce, 0xd5, 0xf4, 0xbd,
  0x0e, 0xef, 0x51, 0x3e, 0x94, 0xc1, 0xfb, 0xbd, 0x4a, 0x90, 0x09, 0x3e,
  0xb4, 0x7e, 0x52, 0x3d, 0xda, 0x3a, 0xee, 0x3e, 0xef, 0x80, 0x90, 0x3c,
  0xcd, 0xf3, 0xb3, 0x3d, 0xef, 0x69, 0x5f, 0x3e, 0x78, 0x2b, 0xd4, 0xbe,
  0xcb, 0x6b, 0x23, 0x3e, 0x57, 0x2c, 0x1e, 0xbe, 0xf6, 0xd1, 0x09, 0x3f,
  0xa4, 0x1f, 0x7a, 0xbe, 0xe5, 0x69, 0xe2, 0xbd, 0xba, 0xaa, 0xc9, 0xbe,
  0xfe, 0x3c, 0xf9, 0x3e, 0x32, 0xbd, 0xbd, 0x3d, 0x19, 0x4d, 0x04, 0xbe,
  0x8f, 0xdc, 0x0f, 0x3d, 0x4d, 0x5d, 0x23, 0x3f, 0x95, 0x30, 0xbd, 0xbd,
  0x1c, 0xdc, 0xc7, 0xbc, 0x40, 0x98, 0xaa, 0x3d, 0xe6, 0x35, 0x85, 0x3d,
  0x91, 0xf8, 0xee, 0xbc, 0x8e, 0x95, 0xad, 0xbd, 0x20, 0xb5, 0xbd, 0x3e,
  0xb3, 0xd3, 0x23, 0x3d, 0x8f, 0xac, 0x3f, 0x3e, 0x32, 0x14, 0xa7, 0x3d,
  0x79, 0x20, 0x04, 0x3e, 0x8e, 0xf1, 0xbc, 0x3e, 0x09, 0x31, 0xdf, 0x3e,
  0x9b, 0x62, 0xa9, 0xbe, 0x5b, 0x37, 0x25, 0x3e, 0xa5, 0x17, 0x31, 0xbd,
  0x5f, 0xbb, 0xca, 0x3e, 0xb1, 0xa9, 0xe0, 0x3e, 0x57, 0xdb, 0x68, 0xbe,
  0xbe, 0xce, 0x83, 0x3d, 0xef, 0xbb, 0xec, 0x3d, 0x97, 0x3f, 0x7d, 0xbe,
  0xb4, 0x1a, 0x72, 0x3e, 0x6f, 0xcc, 0x7f, 0xbd, 0xe3, 0x95, 0xd4, 0x3e,
  0x26, 0x39, 0xbb, 0xbd, 0x08, 0xd0, 0xd7, 0x3e, 0x1a, 0x43, 0xab, 0x3c,
  0x91, 0x78, 0x85, 0xbe, 0x74, 0x4a, 0xda, 0x3c, 0xc2, 0xde, 0xad, 0x3d,
  0x63, 0xdf, 0xa0, 0xbe, 0x92, 0xd4, 0x8b, 0x3c, 0xfc, 0xb4, 0x78, 0x3e,
  0x9a, 0x8c, 0x0a, 0xbd, 0x96, 0x96, 0xb9, 0x3c, 0x33, 0x1f, 0xc9, 0x3e,
  0x4d, 0xff, 0xf8, 0x3c, 0x7c, 0x44, 0x06, 0xbf, 0x10, 0x1b, 0x20, 0x3d,
  0x84, 0x65, 0x91, 0x3e, 0xfb, 0xd5, 0xd0, 0x3e, 0x44, 0x5c, 0x02, 0x3e,
  0xdc, 0xcc, 0x72, 0xbe, 0xa0, 0xfa, 0x87, 0xbd, 0xf1, 0x61, 0x49, 0x3e,
  0x6e, 0x15, 0x98, 0xbd, 0x4b, 0x3f, 0x05, 0x3d, 0x6d, 0x26, 0xc1, 0x3c,
  0x26, 0x82, 0x5f, 0xbe, 0x4e, 0x23, 0x33, 0xbe, 0x66, 0x4a, 0x66, 0xbc,
  0xe6, 0xd9, 0xb1, 0x3d, 0x5c, 0x35, 0x3e, 0xbe, 0xb7, 0xd0, 0x95, 0xbc,
  0x6e, 0xf5, 0x07, 0xbe, 0x90, 0xfb, 0xe4, 0xbd, 0xcc, 0x33, 0xd0, 0x3d,
  0x56, 0x84, 0x01, 0x3e, 0x74, 0xc2, 0xab, 0xbd, 0xdc, 0x57, 0x7a, 0x3e,
  0x05, 0x94, 0x7b, 0xbe, 0x0f, 0x12, 0x9d, 0x3d, 0x3b, 0x9e, 0x41, 0x3e,
  0x41, 0x08, 0x22, 0xbc, 0x2c, 0x5d, 0xab, 0x3e, 0xa8, 0x53, 0xa2, 0x3d,
  0x44, 0x43, 0xcf, 0x3e, 0xf4, 0xe8, 0xad, 0x3e, 0xc7, 0x2e, 0xd4, 0xbc,
  0x52, 0x38, 0x95, 0xbe, 0x43, 0x01, 0xc0, 0x3d, 0x4e, 0x0d, 0x88, 0x3d,
  0x88, 0xcc, 0x84, 0x3c, 0x03, 0x5d, 0x12, 0x3e, 0xe0, 0x92, 0x09, 0x3d,
  0x36, 0xd5, 0x87, 0x3e, 0xeb, 0x95, 0x3a, 0xbe, 0x75, 0x70, 0x04, 0xbe,
  0x1e, 0x9c, 0x71, 0xbe, 0x22, 0x5c, 0x77, 0x3e, 0xbe, 0xb9, 0x99, 0x3e,
  0xaf, 0x84, 0xa9, 0xbc, 0xe8, 0x5b, 0x91, 0xbe, 0x4f, 0x1e, 0x6d, 0x3e,
  0xf0, 0x74, 0x27, 0x3e, 0x25, 0xad, 0xce, 0x3d, 0xb2, 0xfd, 0x2f, 0x3e,
  0x99, 0x54, 0xc3, 0x3e, 0xe2, 0xb6, 0x65, 0x3d, 0xf4, 0x1b, 0x8f, 0xbc,
  0x47, 0xec, 0xa6, 0xbd, 0x87, 0x0f, 0x16, 0x3e, 0x1d, 0x4f, 0x49, 0xbe,
  0x52, 0xdd, 0x1b, 0x3e, 0xf0, 0xa5, 0x2a, 0xbc, 0x92, 0x51, 0xef, 0x3e,
  0xf7, 0x39, 0x93, 0x3e, 0x85, 0x87, 0x6b, 0x3e, 0x20, 0xb6, 0x14, 0xbe,
  0x93, 0x6d, 0xb9, 0x3e, 0x40, 0x8d, 0xb3, 0x3e, 0x0a, 0x76, 0x27, 0x3d,
  0x39, 0xe9, 0x73, 0xbd, 0x3b, 0xf1, 0x8e, 0x3e, 0xd2, 0x8f, 0x86, 0xbd,
  0x4d, 0x32, 0x18, 0x3e, 0x8b, 0x46, 0xc0, 0xbe, 0xcb, 0xf2, 0x5b, 0x3d,
  0xf8, 0x68, 0x53, 0x3e, 0x4a, 0x76, 0xe9, 0x3d, 0x9c, 0x5b, 0xe4, 0xbe,
  0xb2, 0x4c, 0xbb, 0xbe, 0x49, 0x6d, 0xfa, 0xbe, 0xc3, 0x08, 0xa9, 0xbe,
  0x0c, 0x10, 0x60, 0xbe, 0x2b, 0x95, 0xef, 0x3c, 0xde, 0xd0, 0x90, 0xbd,
  0x35, 0x2a, 0x2f, 0xbd, 0x87, 0x71, 0x0f, 0xbf, 0xe2, 0x7d, 0x89, 0x3e,
  0x1f, 0x26, 0x72, 0x3e, 0xfd, 0x01, 0xa5, 0x3e, 0x6e, 0x5e, 0x7f, 0xbe,
  0x51, 0x52, 0x72, 0xbd, 0x0d, 0x09, 0x0d, 0xbd, 0xd7, 0x9e, 0xe0, 0x3d,
  0x4c, 0x17, 0x22, 0xbe, 0x5b, 0xea, 0xe1, 0xbd, 0x95, 0x4b, 0xb9, 0x3e,
  0x6a, 0x0d, 0xe3, 0xbc, 0xef, 0x4a, 0x20, 0x3e, 0xd7, 0x70, 0x79, 0x3e,
  0x7d, 0x9b, 0x87, 0xbc, 0x32, 0xbd, 0x6c, 0xbe, 0x7a, 0x24, 0x83, 0x3e,
  0x7f, 0x65, 0x6f, 0x3e, 0xe0, 0xfe, 0xd2, 0x3d, 0xd9, 0x7a, 0x0a, 0x3e,
  0xed, 0x8a, 0xf3, 0xbd, 0x4a, 0xa6, 0xdb, 0xbd, 0x7d, 0x09, 0xf4, 0x3d,
  0x49, 0xaa, 0xd9, 0xbc, 0xcd, 0x07, 0xb3, 0xbe, 0x98, 0x0c, 0xb4, 0xbe,
  0x10, 0x39, 0x70, 0xbe, 0xf9, 0x7d, 0xf9, 0x39, 0xa6, 0x9c, 0x58, 0x3e,
  0x62, 0x0b, 0xda, 0xbd, 0x12, 0x1e, 0x9a, 0x3e, 0x5b, 0xf3, 0x6c, 0x3d,
  0xc7, 0xb3, 0xa3, 0xbc, 0x9e, 0x69, 0x89, 0xbd, 0x37, 0xc8, 0x02, 0x3d,
  0x80, 0x49, 0x2a, 0x3d, 0xa9, 0x2c, 0xcb, 0x3d, 0xec, 0xa8, 0xea, 0x3c,
  0x0c, 0xb9, 0x4a, 0xbe, 0xce, 0xa6, 0x63, 0x3e, 0xf8, 0x2d, 0xaf, 0x3e,
  0x27, 0x9a, 0x1d, 0x3e, 0xee, 0xe9, 0x98, 0x3d, 0x8e, 0x42, 0x2f, 0xbe,
  0x93, 0x4a, 0x91, 0x3e, 0x72, 0xf2, 0x8a, 0xbe, 0x45, 0x3a, 0xca, 0x3d,
  0xb5, 0x88, 0xc4, 0x3e, 0x1c, 0x7b, 0x8f, 0x3c, 0x6e, 0xf9, 0x85, 0xbe,
  0xd3, 0x14, 0x08, 0xbe, 0xb1, 0x9a, 0xae, 0xbd, 0x4a, 0x57, 0xa7, 0xbe,
  0x5b, 0xb5, 0x8c, 0x3e, 0xed, 0xfa, 0x1a, 0x3e, 0xb8, 0x7f, 0x30, 0x3e,
  0x31, 0x24, 0x00, 0xbf, 0xd5, 0x07, 0xbc, 0xbd, 0x9c, 0x04, 0xba, 0xbe,
  0xb0, 0x82, 0xa4, 0xbe, 0x4d, 0xb5, 0x2d, 0xbe, 0xd5, 0xac, 0x47, 0x3c,
  0xc3, 0x08, 0xce, 0xbd, 0xbd, 0xb8, 0x0d, 0xbc, 0xb6, 0x60, 0x67, 0xbd,
  0x6e, 0x1d, 0x9d, 0xbb, 0x8d, 0x7f, 0xf8, 0x3d, 0x6f, 0x87, 0x9e, 0x3d,
  0x73, 0x05, 0x14, 0xbd, 0x83, 0xc2, 0x95, 0x3d, 0xaf, 0xfa, 0x41, 0x3e,
  0xed, 0xc8, 0x19, 0x3d, 0xa1, 0x84, 0x86, 0x3e, 0x18, 0xbd, 0xa6, 0x3d,
  0x82, 0xe0, 0xfe, 0xbd, 0x08, 0xf3, 0x78, 0x3e, 0xb0, 0x1e, 0x8d, 0xbd,
  0xef, 0x55, 0xaa, 0x3d, 0x47, 0xb6, 0xad, 0xbe, 0xca, 0x8a, 0xfa, 0xbd,
  0xb4, 0xae, 0xb2, 0xbc, 0x81, 0x2e, 0x02, 0x3e, 0x98, 0x90, 0xc5, 0xbe,
  0x96, 0x20, 0x5e, 0x3e, 0xf1, 0x1c, 0x81, 0x3e, 0xce, 0x16, 0xaf, 0xbe,
  0x3e, 0xc1, 0xa8, 0x3e, 0x9d, 0xc1, 0xb1, 0xbd, 0xfe, 0x74, 0x1a, 0xbe,
  0x06, 0x7e, 0x28, 0x3e, 0x3d, 0xd7, 0xc0, 0x3d, 0x5a, 0xb8, 0x11, 0xbd,
  0x3a, 0x18, 0x92, 0x3d, 0xcc, 0xb9, 0x69, 0xbe, 0x5f, 0xa7, 0xc7, 0x3e,
  0x57, 0x1c, 0x92, 0xbe, 0x14, 0x65, 0xac, 0x3d, 0x7b, 0x00, 0x2d, 0x3d,
  0x39, 0x82, 0x05, 0x3c, 0xac, 0x68, 0x38, 0x3e, 0xdc, 0x3e, 0x85, 0x3e,
  0xb3, 0xa5, 0xc6, 0xbe, 0xcf, 0x75, 0x99, 0x3d, 0xed, 0xdc, 0xc5, 0x3c,
  0xd6, 0xd7, 0x38, 0xbe, 0x8b, 0xd5, 0x52, 0xbe, 0xd6, 0xae, 0x3e, 0xbe,
  0xa7, 0x40, 0x4e, 0x3d, 0xfa, 0x75, 0xc6, 0xbd, 0x6f, 0x31, 0xa2, 0x3d,
  0x94, 0xc4, 0x9b, 0xbd, 0x59, 0xb2, 0xc2, 0xbe, 0xd1, 0x5a, 0xb0, 0xbd,
  0x2e, 0x12, 0xfc, 0x3c, 0x9f, 0x70, 0x4e, 0xbc, 0x14, 0x0e, 0xce, 0x3e,
  0x33, 0xeb, 0x55, 0x3d, 0xa8, 0x3f, 0xab, 0xbe, 0x07, 0x54, 0x18, 0xbe,
  0xca, 0x1a, 0x8b, 0x3c, 0x2b, 0x04, 0x49, 0xbd, 0x6f, 0xb7, 0xe4, 0xbe,
  0x43, 0x5a, 0xb8, 0x3d, 0x91, 0xee, 0xc4, 0x3d, 0x43, 0x4b, 0xcb, 0xbb,
  0x3f, 0x32, 0x92, 0x3e, 0x61, 0x59, 0x6a, 0xbd, 0x6b, 0x2d, 0xca, 0x3b,
  0x02, 0xe2, 0xf0, 0xbb, 0x24, 0x12, 0xa0, 0x3e, 0x7d, 0x63, 0x7c, 0x3d,
  0x6f, 0x4f, 0xa2, 0x3e, 0x4b, 0x63, 0x55, 0xbe, 0x20, 0xc2, 0x23, 0x3e,
  0xb6, 0xc1, 0x03, 0x3d, 0x94, 0xd9, 0xfa, 0x3c, 0x45, 0x7a, 0xb6, 0xbe,
  0xfe, 0xa0, 0x47, 0xbe, 0x2d, 0x52, 0xc3, 0xbc, 0x83, 0x03, 0x7f, 0xbe,
  0x7d, 0x51, 0xc1, 0x3e, 0xf6, 0xac, 0xcc, 0x3e, 0xa1, 0xc3, 0x23, 0x3e,
  0x59, 0x26, 0xc3, 0xbd, 0xa3, 0x93, 0x91, 0x3e, 0xca, 0xaf, 0x35, 0x3e,
  0x35, 0x0d, 0x35, 0xbd, 0xf8, 0x82, 0xf7, 0x3e, 0x88, 0x37, 0xac, 0xbd,
  0x9b, 0xc2, 0x3c, 0xbe, 0x85, 0x14, 0x97, 0x3e, 0x51, 0xd0, 0xbf, 0x3d,
  0xda, 0x33, 0x34, 0x3d, 0xbb, 0x51, 0x14, 0xbd, 0xf2, 0x9a, 0x5f, 0x3e,
  0xf2, 0x91, 0x7f, 0xbe, 0xe6, 0xf6, 0x1c, 0x3d, 0x62, 0xe8, 0x83, 0xbc,
  0x07, 0x66, 0x1e, 0x3f, 0xf3, 0x52, 0x6d, 0xbd, 0xbe, 0x26, 0x4f, 0xbd,
  0x4b, 0x94, 0x32, 0xbe, 0xee, 0x3f, 0xcd, 0xbe, 0xd1, 0xfb, 0xa0, 0xbd,
  0x38, 0xba, 0x57, 0xbe, 0xda, 0x68, 0x09, 0x3f, 0x1d, 0x38, 0xc9, 0xbc,
  0x2c, 0x3f, 0xd3, 0x3d, 0xb5, 0x52, 0xb3, 0x3e, 0x58, 0x02, 0xe7, 0x3d,
  0xe0, 0x4a, 0x0a, 0x3f, 0x74, 0x85, 0xc3, 0x3d, 0x6a, 0xff, 0x86, 0xbe,
  0xe3, 0x10, 0xe3, 0xbb, 0xce, 0xd2, 0xa3, 0x3e, 0xbc, 0x76, 0x29, 0x3f,
  0x78, 0x96, 0x08, 0x3e, 0x34, 0x87, 0xed, 0x3c, 0xa2, 0xd7, 0xc7, 0x3d,
  0x65, 0x46, 0xe3, 0xbd, 0xb3, 0xfe, 0x0e, 0x3e, 0xa2, 0x7d, 0x94, 0x3e,
  0x5c, 0x4b, 0x96, 0xbd, 0x7c, 0xd4, 0x4e, 0x3e, 0x42, 0x1c, 0x23, 0x3e,
  0xc0, 0x60, 0xb4, 0x3d, 0x7b, 0x36, 0xdf, 0xbd, 0x8c, 0xf8, 0x46, 0x3d,
  0xa7, 0x39, 0x69, 0x3c, 0x7d, 0x6f, 0xc5, 0x3d, 0x1b, 0x2c, 0x9d, 0x3e,
  0x40, 0xa3, 0xfd, 0x3d, 0x2b, 0xff, 0xb5, 0x3e, 0x4d, 0x73, 0x4f, 0xbe,
  0x10, 0x25, 0xf7, 0xbc, 0x23, 0x2a, 0x47, 0xbd, 0xf6, 0x05, 0x2b, 0x3e,
  0xd8, 0xd6, 0xdb, 0xbd, 0xe4, 0x22, 0x7e, 0x3e, 0x4f, 0xd7, 0x92, 0x3e,
  0x12, 0x1d, 0xa5, 0x3e, 0x19, 0x8c, 0x50, 0x3e, 0xae, 0x1d, 0xb8, 0x3d,
  0x9f, 0x22, 0x90, 0x3e, 0x2b, 0xe9, 0x92, 0xbe, 0x23, 0x37, 0x01, 0x3e,
  0x11, 0xe7, 0x65, 0xbd, 0xb4, 0xd2, 0x51, 0x3d, 0x21, 0xad, 0x88, 0xbe,
  0xae, 0x2d, 0xe0, 0xbd, 0x9b, 0xf3, 0xc4, 0xbd, 0xb7, 0x95, 0x93, 0xbd,
  0xcc, 0x8e, 0x50, 0x3e, 0xe0, 0xce, 0xfc, 0xbd, 0x88, 0x8e, 0x04, 0x3d,
  0x84, 0x54, 0xf3, 0x3d, 0x83, 0x70, 0x14, 0x3e, 0x40, 0x4b, 0x79, 0x3e,
  0x2e, 0x83, 0x93, 0xbe, 0xc4, 0xf2, 0x9e, 0x3e, 0x87, 0xbd, 0x10, 0xbe,
  0x3f, 0xc0, 0x2d, 0xbd, 0x6f, 0xc2, 0x87, 0x3d, 0x62, 0x0a, 0x9f, 0xbd,
  0x52, 0x13, 0xa0, 0x3e, 0x65, 0xee, 0x9e, 0x3e, 0x8d, 0x65, 0xae, 0x3e,
  0x08, 0x5c, 0xa9, 0x3e, 0xf4, 0x38, 0xb6, 0x3c, 0x9e, 0x2a, 0xcc, 0xbd,
  0x77, 0x1a, 0xe2, 0x3d, 0x1c, 0x0b, 0xf7, 0x3d, 0x11, 0x39, 0x8d, 0xbe,
  0x94, 0xb1, 0x80, 0xbd, 0x2a, 0x79, 0xdd, 0xbe, 0xaf, 0xb4, 0x82, 0x3e,
  0x74, 0x1f, 0xcb, 0x3e, 0xb1, 0x3b, 0x07, 0xbd, 0x9d, 0x05, 0x35, 0xbe,
  0xfd, 0xb6, 0xd9, 0xbd, 0xed, 0x0b, 0xb8, 0xbe, 0xbd, 0x68, 0x95, 0xbc,
  0xcd, 0x24, 0x94, 0xbd, 0x83, 0x82, 0x98, 0xbe, 0x71, 0xcc, 0x83, 0xbe,
  0xa2, 0x0b, 0xbf, 0x3e, 0x81, 0xc6, 0xfb, 0xbd, 0x79, 0xe3, 0x8f, 0x3e,
  0xa6, 0x5a, 0x86, 0xbe, 0x81, 0x6c, 0x93, 0x3d, 0x2a, 0x47, 0xe6, 0xbe,
  0xd5, 0xfb, 0xc3, 0xbe, 0xaf, 0x6f, 0x65, 0x3d, 0xb6, 0x6e, 0x97, 0x3d,
  0xe3, 0xaa, 0x84, 0x3e, 0x00, 0xa1, 0x52, 0xbe, 0xca, 0x49, 0xf5, 0xbd,
  0x12, 0x13, 0x06, 0xbe, 0x35, 0x47, 0x65, 0x3e, 0xce, 0x0f, 0x75, 0xbc,
  0x16, 0xb6, 0xad, 0xbe, 0xd0, 0x6c, 0xea, 0x3c, 0xac, 0x8d, 0x04, 0x3e,
  0x0d, 0x4a, 0x38, 0xbd, 0x5e, 0xed, 0x81, 0x3d, 0x5e, 0x48, 0x3e, 0x3e,
  0x63, 0x1d, 0xb7, 0xbd, 0xe1, 0x31, 0x0f, 0x3e, 0xc8, 0x82, 0x5a, 0xbe,
  0x5b, 0xab, 0x2f, 0xbe, 0x04, 0x7d, 0xea, 0x3c, 0x76, 0xfa, 0x42, 0x3e,
  0x2e, 0xbd, 0x0c, 0x3e, 0x4b, 0x74, 0xb0, 0x3e, 0x1d, 0x89, 0xc2, 0xbe,
  0x90, 0x51, 0x49, 0x3e, 0x5d, 0x0d, 0x41, 0x3e, 0xe2, 0xa5, 0x5c, 0xbe,
  0xc8, 0x46, 0x9a, 0x3d, 0xa0, 0x80, 0xea, 0x3b, 0xc1, 0x33, 0xaf, 0xbe,
  0x24, 0x0f, 0xe0, 0xbd, 0x1e, 0x50, 0x80, 0xbc, 0x42, 0x36, 0x37, 0xbd,
  0x94, 0x0b, 0x1a, 0x3d, 0x26, 0x75, 0x16, 0x3e, 0xe2, 0xcf, 0x7d, 0x3d,
  0xd0, 0x6b, 0x83, 0xbd, 0x91, 0xc9, 0x3f, 0xbd, 0xa0, 0xd6, 0xc2, 0x3e,
  0x37, 0xa3, 0x92, 0xbd, 0xeb, 0xa5, 0x86, 0x3e, 0xf2, 0x30, 0x34, 0xbd,
  0xb7, 0x67, 0x02, 0xbf, 0x26, 0x7c, 0xa2, 0xbe, 0xb5, 0x62, 0x01, 0x3e,
  0x38, 0x30, 0xe2, 0xbd, 0xb0, 0xf2, 0xd9, 0xbd, 0x3c, 0xeb, 0x68, 0xbe,
  0xea, 0x5f, 0x7e, 0x3e, 0xfa, 0x7e, 0xaa, 0x3e, 0x8a, 0x7d, 0x21, 0xbe,
  0xe0, 0xb5, 0xcd, 0xbc, 0x0c, 0x33, 0xea, 0xbe, 0x2e, 0x84, 0xc4, 0xbd,
  0x7b, 0x28, 0x4d, 0x3e, 0x01, 0x45, 0x8d, 0x3d, 0x56, 0x59, 0x0a, 0xbe,
  0x49, 0x95, 0xe6, 0xbe, 0x47, 0xa1, 0x08, 0x3e, 0xbb, 0x5b, 0x8a, 0x3e,
  0x37, 0x9c, 0xfd, 0x3d, 0xc1, 0x43, 0x7f, 0xbe, 0x45, 0xbb, 0x8e, 0xbe,
  0x93, 0x40, 0x8c, 0xbe, 0xd3, 0x15, 0x83, 0xbe, 0x39, 0x01, 0x5f, 0xbd,
  0x79, 0xed, 0xa7, 0x3b, 0x6c, 0x9d, 0xa7, 0x3e, 0x91, 0x13, 0x0b, 0xbe,
  0x97, 0xbe, 0x3d, 0xbe, 0x68, 0x07, 0x4b, 0x3e, 0xed, 0x16, 0xa9, 0x3e,
  0x09, 0x4a, 0x8c, 0x3e, 0x88, 0xbc, 0x32, 0xbe, 0x3e, 0x37, 0x7c, 0xbd,
  0x9e, 0x61, 0xb4, 0xbd, 0x05, 0x5b, 0x98, 0xbd, 0xfe, 0x5b, 0x41, 0x3e,
  0xa6, 0xc4, 0x4c, 0x3d, 0x1e, 0x20, 0x81, 0xbd, 0x8d, 0xcd, 0x03, 0x3e,
  0x5c, 0x31, 0x93, 0x3e, 0x15, 0xba, 0x22, 0xbe, 0x1a, 0xec, 0xfa, 0xba,
  0xa3, 0x05, 0x92, 0xbe, 0x3a, 0x31, 0xff, 0xbd, 0x84, 0x05, 0x7d, 0x3e,
  0x5a, 0x84, 0xa7, 0xbe, 0xbf, 0xe3, 0xce, 0x3e, 0x21, 0x55, 0xb5, 0x3e,
  0xd1, 0xb3, 0x75, 0xbe, 0x29, 0xb1, 0x6d, 0x3e, 0x3a, 0xb6, 0x08, 0x3e,
  0xd5, 0xad, 0xdf, 0xbe, 0xfb, 0x8e, 0x38, 0xbd, 0xe0, 0x58, 0x86, 0xbe,
  0xb9, 0x00, 0x19, 0x3e, 0x48, 0x6e, 0xbd, 0xbd, 0x19, 0xb6, 0x44, 0xbe,
  0x8c, 0x61, 0x8c, 0x3e, 0x1c, 0xf9, 0xce, 0x3d, 0x07, 0x4a, 0xb1, 0x3e,
  0xd6, 0x67, 0x0c, 0x3e, 0x11, 0x03, 0x60, 0x3e, 0x55, 0x3e, 0xcd, 0xbc,
  0x93, 0x68, 0x11, 0x3d, 0x12, 0xa8, 0x8c, 0x3d, 0x9c, 0xa0, 0x8b, 0x3d,
  0x8f, 0x81, 0xc5, 0x3d, 0xbb, 0xe4, 0xae, 0xbb, 0xeb, 0xd0, 0x32, 0x3e,
  0x60, 0xea, 0xf7, 0x3d, 0xd3, 0x50, 0x57, 0xbd, 0xfd, 0x8f, 0x07, 0x3c,
  0xa5, 0xf8, 0xf9, 0xbd, 0xc4, 0xe2, 0x06, 0xbe, 0x1d, 0xa4, 0x11, 0x3e,
  0xfb, 0x4d, 0x54, 0xbe, 0x19, 0xe7, 0x71, 0xbe, 0x09, 0x04, 0xd1, 0xbd,
  0xc0, 0xf4, 0x68, 0xbe, 0x25, 0x4b, 0x50, 0xbc, 0x2e, 0x0d, 0x43, 0x3e,
  0x81, 0x40, 0x42, 0xbe, 0x88, 0xec, 0xa9, 0x3c, 0x20, 0x74, 0x72, 0xbd,
  0xa2, 0x13, 0xef, 0x3d, 0xcc, 0xe2, 0x06, 0xbe, 0xcf, 0x5f, 0x3c, 0x3c,
  0x16, 0x7c, 0xd5, 0x3d, 0x90, 0xbe, 0x35, 0xbd, 0x98, 0xd9, 0x9a, 0x3d,
  0xc4, 0x3c, 0x24, 0x3e, 0xbc, 0x03, 0x1c, 0xbe, 0x60, 0x7c, 0xd7, 0x3d,
  0x83, 0x94, 0x03, 0xbd, 0x1f, 0x10, 0x7b, 0xbe, 0xca, 0x0b, 0x2e, 0xbe,
  0xb5, 0xb3, 0x39, 0x3e, 0x4b, 0x46, 0x3d, 0xbe, 0x7f, 0x51, 0x7f, 0xbe,
  0xd9, 0x89, 0x50, 0x3d, 0x27, 0x39, 0xfb, 0xbd, 0x7b, 0xf2, 0x8c, 0xbd,
  0xea, 0x1c, 0x04, 0xbe, 0xbc, 0xef, 0x45, 0xbe, 0x34, 0x38, 0x49, 0xbe,
  0x38, 0x18, 0x7c, 0xbe, 0x18, 0x1e, 0x46, 0x3e, 0x90, 0x66, 0xae, 0xbd,
  0x3c, 0x18, 0xc6, 0xbd, 0x53, 0x67, 0x84, 0xbd, 0x2d, 0x9f, 0xd9, 0x3b,
  0xa3, 0x6d, 0x40, 0xbe, 0x5a, 0x2a, 0x54, 0xbd, 0xb0, 0x7c, 0x6c, 0xbd,
  0xc3, 0xeb, 0xd5, 0x3b, 0xce, 0xdf, 0xa8, 0xbc, 0xf9, 0x6b, 0x3b, 0x3e,
  0x13, 0xfa, 0x47, 0xbe, 0x8c, 0x13, 0x14, 0x3e, 0xd4, 0x78, 0x24, 0xbe,
  0x0e, 0xae, 0x37, 0x3e, 0x4b, 0x1e, 0xc1, 0x3d, 0x74, 0x62, 0x3e, 0x3e,
  0xbe, 0xa3, 0x49, 0xbd, 0x14, 0xd0, 0x48, 0x3e, 0x42, 0xd5, 0xa5, 0xbc,
  0x87, 0xc7, 0x2b, 0x3d, 0x9a, 0xda, 0x15, 0xbd, 0x85, 0xdf, 0x37, 0xbd,
  0x9a, 0x34, 0x21, 0xbe, 0x65, 0xab, 0x7d, 0xbc, 0x68, 0xb9, 0xda, 0xbd,
  0x6f, 0x55, 0x15, 0xbe, 0xe7, 0xbe, 0x24, 0x3e, 0x00, 0x18, 0x04, 0x3e,
  0xef, 0x1e, 0x05, 0xbe, 0x05, 0x7e, 0x05, 0xbe, 0x44, 0x34, 0x48, 0xbe,
  0x10, 0xbd, 0xc7, 0xbd, 0x57, 0x7d, 0x0d, 0x3e, 0x3c, 0xdd, 0x0f, 0xbe,
  0x05, 0xda, 0x31, 0x3e, 0xd3, 0x12, 0xf5, 0xbe, 0x1d, 0x4b, 0x06, 0x3e,
  0x5d, 0x5b, 0x1e, 0x3d, 0x66, 0x70, 0x8b, 0x3e, 0x0b, 0x21, 0x1a, 0x3e,
  0xe1, 0x1b, 0x64, 0xbd, 0xe2, 0xc3, 0xc2, 0x3e, 0xb7, 0x92, 0x3d, 0x3e,
  0x1a, 0x36, 0x50, 0x3e, 0xe4, 0x19, 0x2e, 0xbe, 0x1a, 0xef, 0x3c, 0xbe,
  0x1b, 0x44, 0x40, 0xbd, 0xc2, 0x3a, 0x19, 0x3e, 0x26, 0x6c, 0x98, 0x3e,
  0x6f, 0x5d, 0x07, 0xbe, 0x7c, 0x83, 0x27, 0xbd, 0x0b, 0x81, 0x9d, 0xbe,
  0x46, 0x6b, 0x81, 0x3e, 0xda, 0xd9, 0x0a, 0xbe, 0x5c, 0xb2, 0x1d, 0x3e,
  0x22, 0xc1, 0x5b, 0x3e, 0x18, 0xd3, 0x6b, 0x3e, 0x55, 0xcb, 0x02, 0x3e,
  0x1e, 0x33, 0x31, 0x3e, 0x80, 0xea, 0x3c, 0x3e, 0x26, 0xad, 0xb5, 0xbe,
  0x47, 0x0f, 0xf4, 0x3d, 0xe7, 0xbd, 0xa4, 0xbe, 0x60, 0x9d, 0x37, 0xbe,
  0x0b, 0xaa, 0x24, 0xbc, 0xd3, 0x64, 0x03, 0x3e, 0x95, 0x70, 0xf3, 0xbd,
  0x2a, 0xd2, 0xaa, 0x3d, 0xa1, 0x24, 0x49, 0x3d, 0x87, 0x40, 0xb9, 0xbd,
  0x71, 0x0d, 0x14, 0xbe, 0x85, 0x0f, 0x13, 0x3e, 0xdd, 0x87, 0x6c, 0x3e,
  0x0a, 0x6a, 0xf4, 0xbc, 0x05, 0xe5, 0x30, 0x3d, 0x05, 0x32, 0xe4, 0x3d,
  0xa5, 0xbb, 0x45, 0x3e, 0x83, 0x66, 0x0e, 0x3d, 0xaf, 0xce, 0xa5, 0xbe,
  0x5e, 0x17, 0x5d, 0x3e, 0x5c, 0x0d, 0xef, 0x3d, 0x5e, 0xe2, 0xb8, 0xbc,
  0xeb, 0x4a, 0x09, 0x3e, 0xad, 0x84, 0x19, 0x3e, 0xf9, 0x77, 0x98, 0x3e,
  0xc6, 0xe8, 0xd9, 0xbe, 0xa7, 0x37, 0xb2, 0xbc, 0x99, 0x34, 0xee, 0xbd,
  0x1d, 0xc5, 0x5a, 0x3e, 0xa8, 0x24, 0x08, 0xbe, 0xb4, 0xc9, 0x85, 0xbd,
  0x3f, 0x8a, 0xd4, 0xbd, 0x7f, 0x1f, 0x20, 0x3e, 0x97, 0x2c, 0x2e, 0x3e,
  0xfc, 0x67, 0x67, 0xbd, 0x27, 0x6d, 0x36, 0xbd, 0xc9, 0x53, 0xc9, 0xbe,
  0x41, 0x5c, 0xb8, 0x3e, 0x9d, 0xf8, 0x05, 0x3e, 0x6a, 0x6b, 0x77, 0xbe,
  0x86, 0xd3, 0xd5, 0xbd, 0xf4, 0xec, 0x27, 0xbe, 0xb4, 0xae, 0x0e, 0x3e,
  0xc3, 0x10, 0x04, 0xbc, 0xfb, 0x31, 0x9c, 0xbd, 0x86, 0xf0, 0x3a, 0x3e,
  0xbd, 0x67, 0xa1, 0x3e, 0x60, 0x5c, 0x6b, 0x3e, 0xfe, 0x95, 0x1d, 0x3e,
  0x65, 0xec, 0x17, 0x3e, 0x7f, 0xba, 0xb1, 0x3c, 0xa5, 0x44, 0x91, 0xbd,
  0xa4, 0xb7, 0x9c, 0xbd, 0x87, 0xae, 0x4c, 0xbd, 0x19, 0xac, 0xaf, 0x3e,
  0x15, 0x83, 0x91, 0x3e, 0x5a, 0xbc, 0x06, 0xbe, 0xcc, 0x3f, 0x8d, 0xbe,
  0x62, 0x69, 0xde, 0xbd, 0xd2, 0xe1, 0x84, 0x3e, 0xa7, 0x63, 0x00, 0x3e,
  0x04, 0xb4, 0x93, 0x3e, 0xff, 0xb1, 0x4e, 0x3e, 0xe0, 0x5e, 0x9f, 0x3e,
  0x8c, 0xb0, 0x47, 0xbe, 0x61, 0x8e, 0x81, 0xbe, 0x75, 0x9e, 0x47, 0xbe,
  0x6d, 0xe9, 0x6c, 0xbe, 0x70, 0xf6, 0x76, 0xbe, 0x05, 0x02, 0x9a, 0x3e,
  0x3f, 0x4d, 0x0d, 0xbe, 0x0a, 0x90, 0xc4, 0x3d, 0x75, 0xad, 0x14, 0x3e,
  0x79, 0xc8, 0xaf, 0x3d, 0x81, 0xf7, 0x76, 0x3e, 0x29, 0xf3, 0x21, 0x3e,
  0x41, 0xcf, 0x20, 0x3e, 0x55, 0x4d, 0x97, 0xbd, 0x6e, 0xec, 0xa2, 0x3d,
  0xdd, 0x31, 0x63, 0xbd, 0x05, 0x8d, 0x2f, 0x3e, 0x2a, 0x7e, 0x19, 0x3e,
  0x95, 0x49, 0x1c, 0x3d, 0x7f, 0xfd, 0x00, 0x3e, 0x9d, 0x66, 0xbc, 0x3a,
  0x26, 0xd3, 0x0e, 0x3e, 0x38, 0x4f, 0x9b, 0x3e, 0x52, 0x18, 0x22, 0x3e,
  0x49, 0x3c, 0x97, 0x3e, 0xf1, 0x9f, 0xec, 0xbd, 0xb2, 0xd7, 0x8d, 0x3e,
  0x4f, 0xb1, 0xf4, 0x3d, 0x37, 0x1b, 0x87, 0x3d, 0x57, 0x10, 0x9d, 0xbd,
  0x5b, 0x5b, 0xbe, 0x3a, 0xde, 0x39, 0x33, 0x3d, 0xff, 0xba, 0xaa, 0xbd,
  0x77, 0x45, 0x1d, 0x3e, 0x50, 0x75, 0xaf, 0xbd, 0xb9, 0x90, 0x24, 0x3e,
  0x9d, 0x0f, 0xff, 0x3d, 0x96, 0xe2, 0x4f, 0x3e, 0x49, 0xfc, 0x37, 0xbe,
  0xec, 0xf4, 0x83, 0x3a, 0xa8, 0xe7, 0xc9, 0x3e, 0x9d, 0xd5, 0x1b, 0xbe,
  0x61, 0xf4, 0x35, 0xbe, 0x27, 0x54, 0x8d, 0xbe, 0xe1, 0x47, 0xc2, 0x3e,
  0x00, 0x36, 0xaa, 0x3c, 0x69, 0xeb, 0x12, 0x3f, 0x8d, 0xa3, 0xec, 0x3e,
  0xdf, 0xe1, 0xb5, 0xbe, 0x5b, 0xc9, 0xb7, 0x3e, 0xa0, 0x01, 0xaf, 0xbd,
  0xbc, 0x9e, 0x38, 0x3e, 0x9c, 0x0b, 0x88, 0x3e, 0xff, 0xdf, 0x71, 0x3e,
  0x01, 0x0a, 0x35, 0x3e, 0x6d, 0x11, 0xc8, 0xbd, 0x7b, 0x66, 0x8d, 0x3d,
  0xd4, 0x63, 0xcf, 0xbd, 0x3b, 0x4d, 0xb3, 0x3d, 0xfc, 0x96, 0x97, 0xbd,
  0x3f, 0x4c, 0x3e, 0xbe, 0x0f, 0x41, 0x5e, 0xbd, 0x35, 0x03, 0x02, 0xbe,
  0xd2, 0x7d, 0x11, 0x3e, 0xc8, 0xb7, 0x11, 0x3d, 0xd3, 0x2a, 0x6e, 0xbe,
  0xf1, 0x3e, 0x17, 0xbe, 0xf1, 0xce, 0x28, 0xbe, 0x03, 0x34, 0xb2, 0xbe,
  0xfb, 0x21, 0xfb, 0xbd, 0x58, 0x55, 0xca, 0x3e, 0x7a, 0x94, 0x8a, 0xbe,
  0xf1, 0x7b, 0x33, 0xbe, 0xd2, 0xed, 0x06, 0x3e, 0x79, 0x4f, 0x93, 0x3d,
  0xab, 0xd8, 0x6b, 0x3e, 0xcc, 0x45, 0x8b, 0x3e, 0x86, 0x4e, 0x86, 0xbd,
  0x7b, 0xc0, 0x1a, 0xbe, 0xe9, 0xfd, 0x62, 0xbe, 0xf9, 0x61, 0x84, 0x3e,
  0x98, 0x85, 0x47, 0x3e, 0x37, 0x0a, 0x9d, 0xbe, 0xe8, 0xbd, 0x8a, 0x3e,
  0x95, 0x1d, 0x85, 0x3a, 0xf2, 0xb1, 0x6f, 0xbe, 0xda, 0xe8, 0xbf, 0x3e,
  0xf6, 0x18, 0x4c, 0xbe, 0x2a, 0xaa, 0x7a, 0x3e, 0x4b, 0x1c, 0x6c, 0x3e,
  0x06, 0x66, 0x4b, 0x3d, 0xcb, 0xff, 0xcc, 0xbd, 0x39, 0x7c, 0xd4, 0x3d,
  0x06, 0xab, 0x97, 0x3e, 0xc6, 0xae, 0xd2, 0xbd, 0x1f, 0x07, 0xca, 0xbd,
  0xc1, 0x3d, 0x13, 0xba, 0x78, 0xaa, 0xd3, 0xbc, 0x99, 0x82, 0x85, 0xbe,
  0xdd, 0x5e, 0x8d, 0x3e, 0x70, 0x67, 0x45, 0xbb, 0x55, 0x24, 0x82, 0x3e,
  0xa0, 0xce, 0xa9, 0x3e, 0x06, 0xae, 0x62, 0xbd, 0x8f, 0x0f, 0x80, 0xbd,
  0x6b, 0x65, 0xb3, 0x3e, 0xf3, 0x3f, 0x47, 0xbd, 0xa2, 0xa4, 0x3b, 0xbe,
  0x6f, 0x70, 0x86, 0x3e, 0x43, 0x03, 0x31, 0x3f, 0x46, 0xb5, 0x8b, 0x3e,
  0x42, 0x98, 0x21, 0x3e, 0x59, 0x9f, 0x68, 0x3e, 0x17, 0x15, 0x55, 0xbd,
  0x34, 0xb0, 0x42, 0xbe, 0xea, 0xb0, 0x73, 0x3e, 0x1b, 0x66, 0x15, 0x3f,
  0xfd, 0x00, 0x19, 0xbd, 0xd6, 0x4c, 0x05, 0xbc, 0x3c, 0xc7, 0xc2, 0xbe,
  0x5c, 0xb2, 0xa9, 0x3e, 0xc3, 0xcb, 0x6e, 0xbe, 0x02, 0xa2, 0xe3, 0x3b,
  0xe0, 0x03, 0x9e, 0x3d, 0x9b, 0xe2, 0xc1, 0x3e, 0xd6, 0xf8, 0xe0, 0xbd,
  0x85, 0x12, 0x9b, 0xbe, 0xde, 0x69, 0x50, 0x3e, 0xc2, 0xe3, 0xe0, 0x3b,
  0x23, 0x4c, 0x75, 0xbe, 0x3c, 0x26, 0x2e, 0x3e, 0xe4, 0x2f, 0xfc, 0x3e,
  0x80, 0xb1, 0x2b, 0xbe, 0xdb, 0xd4, 0x90, 0x3c, 0xe0, 0x7c, 0xda, 0x3d,
  0x2b, 0x26, 0x46, 0xbe, 0x0d, 0x9d, 0x8a, 0x3e, 0xff, 0xfa, 0xba, 0x3e,
  0x03, 0x4b, 0xa1, 0xbe, 0xf7, 0xea, 0x8c, 0x3e, 0xcc, 0xae, 0x51, 0x3d,
  0x71, 0xb1, 0xd9, 0x3e, 0xe0, 0x99, 0x41, 0x3e, 0x53, 0x00, 0x72, 0xbe,
  0x03, 0x08, 0x11, 0x3e, 0xf4, 0x1a, 0x71, 0x3e, 0xe5, 0xf7, 0x01, 0xbe,
  0x98, 0xd3, 0xb5, 0x3d, 0xd5, 0x0f, 0x58, 0x3e, 0x77, 0x83, 0x9c, 0x3e,
  0x77, 0x1b, 0x96, 0x3e, 0x57, 0x95, 0x92, 0x3e, 0x79, 0xef, 0xed, 0xbc,
  0xde, 0xff, 0xb7, 0xbd, 0x0a, 0xd9, 0xaa, 0x3e, 0xea, 0x10, 0xee, 0x3d,
  0x10, 0x90, 0xa3, 0xbe, 0x0c, 0x43, 0x1f, 0x3e, 0xcb, 0x6e, 0x25, 0xbd,
  0xa0, 0xfb, 0xf6, 0x3d, 0x7f, 0x7d, 0x8d, 0x3e, 0xd9, 0x3d, 0xa9, 0x3e,
  0xd8, 0xc0, 0xe9, 0xbd, 0x17, 0x12, 0xd8, 0xbe, 0x10, 0x7b, 0x32, 0xbe,
  0xd1, 0xf7, 0x43, 0x3e, 0x87, 0xcd, 0x2e, 0x3e, 0x0a, 0xb2, 0x3d, 0x3d,
  0x40, 0x91, 0xf0, 0x3d, 0x8c, 0x90, 0x0b, 0xbe, 0x87, 0x83, 0x9a, 0x3e,
  0x87, 0x0d, 0x2f, 0x3e, 0x93, 0x40, 0x4f, 0x3e, 0x79, 0x90, 0xb5, 0x3c,
  0xdf, 0x7a, 0xab, 0x3e, 0x5b, 0x61, 0xb9, 0x3e, 0xcd, 0xcd, 0xd8, 0x3c,
  0xe7, 0xda, 0x80, 0x3e, 0x64, 0xd5, 0x89, 0x3c, 0xb3, 0xa2, 0x29, 0x3e,
  0xf4, 0x67, 0x2b, 0x3e, 0x09, 0x42, 0xcf, 0x3d, 0xdc, 0xd4, 0xae, 0x3e,
  0xa6, 0x69, 0x09, 0x3c, 0x81, 0x2b, 0x5f, 0xbd, 0xf5, 0xb3, 0x18, 0xbc,
  0xc6, 0xf6, 0x1c, 0x3e, 0xc9, 0xea, 0xd3, 0x3e, 0x10, 0x0c, 0x07, 0x3d,
  0x89, 0x5e, 0xb2, 0x3e, 0x95, 0x6e, 0x42, 0x3e, 0xca, 0xa6, 0x15, 0x3d,
  0x8b, 0xfe, 0xc3, 0xbd, 0x62, 0xa3, 0x5a, 0x3d, 0x0e, 0xa2, 0x9d, 0x3d,
  0xa2, 0x82, 0x81, 0xbd, 0xd9, 0x13, 0xc4, 0xbe, 0x73, 0x5c, 0x5a, 0x3e,
  0xef, 0x26, 0xb1, 0x3e, 0xaa, 0xc8, 0x3e, 0x3e, 0xbd, 0x52, 0x14, 0x3e,
  0x21, 0x34, 0x1e, 0xbd, 0xe3, 0x9e, 0xea, 0x3e, 0x14, 0x65, 0x75, 0x3e,
  0xb1, 0xa7, 0x92, 0x3e, 0xa4, 0x73, 0x4a, 0xbd, 0x3f, 0xbf, 0xa8, 0xbe,
  0x12, 0x59, 0x0a, 0x3d, 0x61, 0xdb, 0x80, 0x3e, 0x37, 0x03, 0xff, 0xbd,
  0x22, 0x17, 0x5c, 0x3e, 0x2f, 0x75, 0xec, 0xbd, 0x6d, 0x9e, 0x2a, 0x3d,
  0xf6, 0xef, 0x24, 0xbe, 0x6a, 0x23, 0xeb, 0x3e, 0xeb, 0xb4, 0x69, 0x3e,
  0x43, 0x43, 0xd0, 0x3c, 0x62, 0x59, 0xb7, 0x3c, 0xed, 0x8d, 0x0c, 0x3e,
  0xb6, 0xbc, 0x93, 0xbd, 0x64, 0x8d, 0x2e, 0x3e, 0x34, 0xc8, 0x63, 0xbd,
  0x97, 0x90, 0xf0, 0x3d, 0x24, 0x04, 0x55, 0xbd, 0xa4, 0x62, 0xcd, 0x3e,
  0x20, 0xe5, 0x06, 0xbe, 0x01, 0x50, 0x58, 0xbe, 0xb8, 0x49, 0x4e, 0xbd,
  0xc9, 0x35, 0x1f, 0xbe, 0x45, 0x8f, 0x36, 0x3b, 0x5a, 0x33, 0xbb, 0x3d,
  0x8d, 0x52, 0xb9, 0x3d, 0x9f, 0xd8, 0x8f, 0x3c, 0x7f, 0xd6, 0xa8, 0x3e,
  0x9f, 0x3a, 0x74, 0x3e, 0x76, 0x8c, 0xb4, 0x3e, 0x55, 0x55, 0x20, 0x3d,
  0xa0, 0xe5, 0xd3, 0x3e, 0x91, 0x4c, 0x64, 0xbe, 0x57, 0xea, 0xa6, 0xbd,
  0x27, 0x0d, 0xc5, 0x3d, 0xfb, 0x22, 0x96, 0xbe, 0xe1, 0xc3, 0x3b, 0x3e,
  0x7e, 0x14, 0xde, 0xbe, 0xe8, 0xe8, 0x0e, 0x3e, 0x4f, 0x08, 0x6b, 0x3d,
  0xb8, 0x73, 0x4c, 0x3c, 0xe3, 0xb0, 0xf5, 0x3d, 0xe2, 0xe4, 0x28, 0x3e,
  0x29, 0x3d, 0xa5, 0x3e, 0xf9, 0x33, 0xaa, 0x3d, 0x9b, 0x10, 0x21, 0xbe,
  0x53, 0x67, 0x22, 0x3e, 0x94, 0xbb, 0x35, 0x3d, 0xcf, 0x1c, 0x58, 0x3e,
  0xcb, 0xd2, 0x90, 0xbd, 0xb4, 0xe3, 0x9a, 0x3e, 0x24, 0x81, 0x8b, 0x3d,
  0x38, 0xbf, 0x8c, 0x3e, 0x4b, 0xc3, 0x02, 0x3e, 0x3a, 0x0f, 0x8d, 0x3e,
  0xa2, 0x16, 0x11, 0x3e, 0xcf, 0xa1, 0x34, 0xbe, 0xf3, 0xb2, 0xfb, 0x3b,
  0x03, 0xd4, 0x8e, 0x3e, 0x78, 0xcc, 0xae, 0x3d, 0x01, 0x48, 0x2d, 0x3e,
  0x8a, 0xd3, 0x31, 0x3e, 0xa4, 0x8b, 0x50, 0xbe, 0x9e, 0x54, 0x8b, 0xbe,
  0xc4, 0x14, 0xcb, 0x3d, 0x20, 0x29, 0x76, 0x3e, 0xb5, 0x6a, 0x61, 0xbe,
  0xe4, 0xa5, 0x72, 0x3e, 0x66, 0xe4, 0x5e, 0xbc, 0xe7, 0x93, 0x69, 0x3c,
  0xe0, 0xfa, 0xb1, 0x3d, 0x4e, 0xc0, 0x8b, 0x3d, 0x8c, 0x48, 0xc0, 0xbe,
  0x79, 0x0a, 0x84, 0x3e, 0xbd, 0x04, 0xa9, 0xbe, 0xea, 0x5c, 0x3e, 0x3e,
  0xe0, 0x16, 0x2f, 0x3d, 0xf8, 0x7e, 0x10, 0xbe, 0x6f, 0x54, 0x9b, 0xbe,
  0xf9, 0xf9, 0x90, 0x3c, 0x69, 0xa7, 0x16, 0x3e, 0x9a, 0x13, 0xf7, 0xbd,
  0xf9, 0x42, 0xf6, 0x3b, 0x56, 0x8d, 0x07, 0x3e, 0x47, 0xd8, 0xad, 0x3e,
  0x2e, 0xff, 0x31, 0xbe, 0xf7, 0x91, 0xe5, 0x3d, 0xb3, 0x62, 0x9e, 0x39,
  0xeb, 0xb2, 0xe5, 0xbc, 0x2a, 0x88, 0x28, 0xbe, 0x7e, 0xc5, 0x6b, 0xbe,
  0xd7, 0x39, 0xf8, 0x3d, 0x75, 0x16, 0xfd, 0xbd, 0xfd, 0x0a, 0x3e, 0xbd,
  0x99, 0x0f, 0xec, 0xbd, 0x68, 0x9f, 0xda, 0x3c, 0x24, 0xbc, 0x85, 0xbe,
  0x30, 0xbe, 0x66, 0xbe, 0x16, 0xef, 0x96, 0xbe, 0xb1, 0xaa, 0xb7, 0xbd,
  0x15, 0xff, 0xdf, 0x3d, 0x4e, 0x3b, 0x20, 0xbe, 0x41, 0x83, 0x31, 0x3e,
  0xd2, 0x34, 0x93, 0xbe, 0xf4, 0x7b, 0x87, 0xbc, 0x70, 0x1c, 0xc0, 0x3e,
  0x78, 0xb4, 0x04, 0xbc, 0xbc, 0x21, 0x6f, 0xbe, 0x26, 0xf2, 0x21, 0xbe,
  0x94, 0x67, 0xf7, 0x3d, 0x7d, 0x9d, 0x16, 0x3d, 0x96, 0xdc, 0x86, 0xbd,
  0x96, 0x24, 0xb6, 0x3d, 0x10, 0x87, 0x9f, 0x3e, 0xa3, 0x6e, 0x63, 0x3d,
  0x8a, 0x3f, 0x9f, 0xbd, 0x36, 0x0e, 0x9e, 0x3d, 0x5f, 0x63, 0x20, 0xbd,
  0x06, 0x57, 0x27, 0xbe, 0xef, 0x84, 0xce, 0x3e, 0x04, 0x4b, 0x40, 0xbe,
  0x36, 0x68, 0xeb, 0x3e, 0xae, 0x85, 0x3d, 0xbe, 0x31, 0x0c, 0x4c, 0xbe,
  0xeb, 0x85, 0xbe, 0x3c, 0xb8, 0xa7, 0xdc, 0x3d, 0x72, 0xdf, 0x99, 0xbe,
  0xe1, 0x97, 0x99, 0xbd, 0x26, 0x0d, 0xaf, 0xbd, 0x8e, 0x82, 0xeb, 0x3d,
  0xe6, 0xee, 0xe4, 0x3b, 0x87, 0xf8, 0x40, 0xbd, 0xe5, 0x1e, 0x93, 0x3d,
  0x63, 0xd8, 0xd4, 0x3d, 0x3e, 0xaa, 0x80, 0x3e, 0x84, 0xaa, 0xcf, 0xbd,
  0x87, 0xe5, 0xdc, 0x3d, 0x37, 0xe9, 0x82, 0x3c, 0xe6, 0xeb, 0x7d, 0x3d,
  0xa3, 0x4f, 0x74, 0xbe, 0x82, 0x94, 0x5c, 0xbe, 0xbc, 0x68, 0xaf, 0x3a,
  0x4e, 0x04, 0xfb, 0xbd, 0x56, 0xf7, 0xdd, 0x39, 0xce, 0xec, 0x19, 0x3e,
  0x4a, 0xe9, 0xaa, 0x3d, 0x45, 0xd3, 0x94, 0x3e, 0xa4, 0x19, 0xa8, 0x3d,
  0x1f, 0xd7, 0xfe, 0xbd, 0xcc, 0x1a, 0x64, 0x3e, 0xfd, 0xb1, 0xc0, 0xbd,
  0xf9, 0xd0, 0x00, 0x3e, 0xe4, 0x8a, 0x64, 0x3c, 0xdc, 0x56, 0x20, 0xbd,
  0x38, 0xc7, 0x24, 0xbd, 0x60, 0xf9, 0x18, 0x3d, 0xe3, 0x00, 0x74, 0x3e,
  0x6d, 0xe9, 0xfb, 0x3d, 0xf4, 0xe6, 0x43, 0xbe, 0x25, 0xce, 0xcf, 0xbe,
  0xe3, 0x45, 0xae, 0x3e, 0x2e, 0xaf, 0xc4, 0x3c, 0x8f, 0x0d, 0xee, 0x3c,
  0x81, 0x57, 0x66, 0x3c, 0x4f, 0x60, 0x0d, 0x3e, 0xe0, 0x33, 0x6e, 0x3e,
  0xf9, 0xa1, 0xc5, 0x3d, 0x30, 0x0d, 0x18, 0x3e, 0x71, 0xe0, 0xf8, 0x3d,
  0xdd, 0x41, 0x37, 0x39, 0xe2, 0x28, 0x09, 0xbd, 0x40, 0x24, 0xe9, 0x3b,
  0x23, 0x14, 0xdc, 0x3d, 0xb7, 0x3c, 0x10, 0x3e, 0xb2, 0x12, 0x65, 0xbe,
  0x27, 0xf8, 0x25, 0xbc, 0x82, 0xaf, 0xc1, 0xbd, 0x0b, 0x29, 0x00, 0xbe,
  0x0a, 0x8a, 0x17, 0x3e, 0x5c, 0x24, 0x1e, 0xbe, 0x7f, 0xf1, 0x90, 0xbe,
  0x1f, 0xe0, 0xf2, 0xbc, 0x17, 0xa3, 0x15, 0x3e, 0xd0, 0x02, 0xdc, 0x3e,
  0xe3, 0xa1, 0x14, 0x3e, 0x43, 0xd0, 0xdb, 0x3e, 0x7f, 0x20, 0xee, 0x3d,
  0x28, 0xe8, 0x02, 0xbe, 0x34, 0xcd, 0xba, 0x3d, 0x6d, 0x4c, 0x07, 0x3e,
  0xfe, 0xe4, 0x55, 0x3e, 0x29, 0x28, 0xc9, 0x3c, 0xa8, 0x91, 0x15, 0x3d,
  0xa4, 0x63, 0xa1, 0x3e, 0x78, 0x9b, 0x58, 0xbc, 0x21, 0xb9, 0x4b, 0xbe,
  0x03, 0x33, 0xa6, 0x3e, 0xbd, 0xab, 0x36, 0xbe, 0xfc, 0xc5, 0x36, 0xbe,
  0xe7, 0x0d, 0xfe, 0xbd, 0xa8, 0xdc, 0x4d, 0xbc, 0xcd, 0x4f, 0xa4, 0xbd,
  0x1a, 0xc8, 0xa3, 0xbd, 0x63, 0x40, 0x73, 0xbb, 0x39, 0x56, 0x3d, 0x3d,
  0xdb, 0xd8, 0x91, 0xbd, 0xde, 0x23, 0x3c, 0x3e, 0x4f, 0x3f, 0x44, 0xbe,
  0xa6, 0xc7, 0x00, 0xbe, 0x03, 0xff, 0xb1, 0xbd, 0xa4, 0xfa, 0x01, 0x3e,
  0x7b, 0x68, 0x60, 0x3d, 0xb3, 0x74, 0x8c, 0xbd, 0xd3, 0x1d, 0x56, 0x3e,
  0x3b, 0x8f, 0x2d, 0x3e, 0x04, 0xe0, 0x4f, 0x3e, 0x45, 0xc6, 0x9b, 0xbc,
  0xc9, 0x37, 0x1c, 0x3f, 0xc1, 0x4e, 0x83, 0xbc, 0xaf, 0xe3, 0x43, 0xbe,
  0xa9, 0x57, 0x12, 0xbe, 0xb6, 0x15, 0xd7, 0xbc, 0xb7, 0x4d, 0x9b, 0x3d,
  0x48, 0x16, 0x17, 0x3e, 0xde, 0xa5, 0x02, 0xbe, 0x83, 0x4d, 0x3e, 0x3e,
  0x0a, 0xb1, 0xca, 0x3e, 0xdb, 0x93, 0x5d, 0x3e, 0x14, 0x9a, 0x0a, 0xbe,
  0x69, 0xc7, 0x3f, 0xbb, 0x89, 0x83, 0xf0, 0xbd, 0x44, 0x2d, 0x29, 0x3d,
  0xa2, 0xaf, 0xa4, 0xbe, 0x97, 0xfa, 0x5e, 0x3e, 0x7c, 0xf4, 0x71, 0x3d,
  0xac, 0xa6, 0x14, 0x3e, 0xf0, 0xe9, 0xca, 0xbd, 0x2a, 0xf1, 0x85, 0xbe,
  0xc1, 0x62, 0x27, 0x3d, 0xab, 0xdc, 0x81, 0xbc, 0xf6, 0xa6, 0x75, 0x3d,
  0x70, 0xc7, 0x45, 0xbd, 0xcf, 0x69, 0x98, 0x3e, 0x61, 0x4d, 0xa4, 0x3e,
  0x7c, 0x73, 0x0b, 0x3f, 0xe6, 0x24, 0xba, 0x3e, 0x68, 0xc7, 0x0b, 0x3f,
  0x85, 0xc5, 0x24, 0xbc, 0xa5, 0xa0, 0x28, 0xbe, 0x4b, 0x79, 0xd0, 0xbd,
  0xe5, 0x3c, 0x79, 0x3e, 0x3e, 0x57, 0x75, 0x3c, 0x67, 0xc2, 0x2a, 0xbd,
  0xd9, 0x02, 0xa0, 0xbd, 0x48, 0xf8, 0x98, 0x3d, 0xc9, 0xce, 0x64, 0x3d,
  0x87, 0x3c, 0x0a, 0x3c, 0xac, 0x29, 0x3d, 0x3d, 0xe0, 0x82, 0xb1, 0x3c,
  0x40, 0xb7, 0x98, 0xbd, 0x5d, 0xc9, 0xed, 0xbc, 0x6a, 0xf2, 0x8a, 0xbd,
  0x2b, 0xe5, 0xeb, 0xbd, 0x9d, 0x74, 0xdd, 0x3d, 0x93, 0x16, 0xb0, 0xbd,
  0xd4, 0x05, 0xb9, 0x3d, 0x37, 0xcd, 0xc2, 0xbe, 0x99, 0x54, 0x87, 0x3e,
  0x53, 0x1e, 0xe8, 0x3d, 0x15, 0x11, 0x43, 0xbe, 0x4b, 0x69, 0x4f, 0xbe,
  0x76, 0xb5, 0xa7, 0xbc, 0x20, 0x37, 0x17, 0x3f, 0x7d, 0xeb, 0x36, 0x3d,
  0xc0, 0x61, 0x81, 0xbc, 0xf2, 0xfa, 0x52, 0x3e, 0x6b, 0x90, 0x95, 0x3e,
  0xb6, 0x0e, 0xb5, 0x3c, 0x92, 0xda, 0xb5, 0x3e, 0x16, 0x9f, 0x5f, 0xbe,
  0x5e, 0x26, 0x58, 0x3e, 0xf5, 0x83, 0xe0, 0x3c, 0x3e, 0x27, 0x38, 0x3e,
  0x79, 0x89, 0x10, 0x3e, 0x77, 0xc4, 0x4a, 0xbc, 0x26, 0x56, 0x76, 0xbd,
  0xb8, 0x08, 0x13, 0x3e, 0x58, 0xb1, 0x13, 0x3f, 0xa7, 0x52, 0x52, 0xbd,
  0xb9, 0xce, 0xe5, 0x3e, 0x4f, 0x15, 0xd5, 0x3e, 0x03, 0xdf, 0xa4, 0xbe,
  0xa3, 0xba, 0x9b, 0xbd, 0x2b, 0x02, 0xbb, 0x3b, 0xc1, 0xa1, 0x9c, 0x3e,
  0x0e, 0x7c, 0x4f, 0xbc, 0x6b, 0xec, 0x4b, 0x3d, 0x29, 0x9f, 0xc3, 0xbd,
  0x06, 0xa2, 0xbf, 0x3e, 0xa0, 0x23, 0x50, 0xbe, 0x65, 0xee, 0x40, 0x3d,
  0xad, 0xb2, 0x67, 0x3d, 0x65, 0xdf, 0x9a, 0x3e, 0xdb, 0x1d, 0x92, 0x3d,
  0x91, 0x86, 0x1f, 0xbd, 0x94, 0x24, 0x90, 0xbd, 0x75, 0xf8, 0x53, 0xbd,
  0xaa, 0x28, 0x46, 0xbe, 0x97, 0x53, 0xae, 0xbc, 0xbd, 0x6d, 0x05, 0x3f,
  0x2b, 0xde, 0x97, 0xbe, 0xea, 0x35, 0x55, 0xbe, 0xb6, 0xe0, 0x2a, 0xbd,
  0xf0, 0x4c, 0xba, 0xbe, 0x49, 0x4d, 0x8f, 0xbb, 0x8a, 0x01, 0xca, 0x3e,
  0x21, 0xb2, 0xbd, 0xbe, 0x77, 0x93, 0x59, 0x3e, 0x92, 0x9c, 0x42, 0x3e,
  0x31, 0xaa, 0x8a, 0x3e, 0x44, 0x89, 0x3d, 0x3e, 0x45, 0xde, 0x7b, 0xbe,
  0xc1, 0xa5, 0x88, 0x3e, 0x0f, 0xa1, 0x54, 0x3e, 0x24, 0xb6, 0x71, 0xbd,
  0xfc, 0xe3, 0x2a, 0x3e, 0xca, 0xd6, 0x06, 0x3e, 0x78, 0x91, 0xc8, 0x3e,
  0x8d, 0xb0, 0xa2, 0x3e, 0xfe, 0xcd, 0x53, 0x3e, 0x0e, 0xb2, 0x64, 0x3d,
  0x87, 0xcf, 0x7b, 0x3c, 0x22, 0x95, 0x98, 0x3e, 0x48, 0x2b, 0xa9, 0x3c,
  0xc1, 0xd4, 0xab, 0xbe, 0x33, 0xd7, 0x36, 0x3e, 0x74, 0x76, 0x31, 0xbd,
  0x9b, 0x18, 0x8d, 0x3e, 0x67, 0x7d, 0xdd, 0x3d, 0xe8, 0x0d, 0xa6, 0x3e,
  0x8c, 0xe0, 0xc7, 0x3d, 0x46, 0xf9, 0xc6, 0xbe, 0x8b, 0x79, 0x06, 0xbe,
  0x76, 0xf2, 0x20, 0x3e, 0xda, 0x41, 0x90, 0xbd, 0x14, 0x59, 0xad, 0x3d,
  0x78, 0x70, 0x1a, 0x3e, 0x92, 0xd6, 0x88, 0x3e, 0x6b, 0xcc, 0xdb, 0xbc,
  0xf8, 0xf9, 0x03, 0xbe, 0x1d, 0x6a, 0x96, 0xbd, 0xf8, 0x98, 0x52, 0xbc,
  0x4c, 0x49, 0x92, 0x3e, 0xa0, 0x03, 0xb7, 0xbd, 0x96, 0xa3, 0xb8, 0x3e,
  0x6a, 0x79, 0x9f, 0xbe, 0xd9, 0x59, 0x40, 0x3e, 0x7e, 0x1a, 0x32, 0x3e,
  0x00, 0xe2, 0x0e, 0x3f, 0x3d, 0x3f, 0x95, 0x3c, 0x5c, 0x40, 0xb0, 0x3d,
  0x08, 0xa1, 0x6f, 0xbd, 0x9e, 0x7c, 0xd2, 0x3d, 0xb7, 0x44, 0x2f, 0x3c,
  0x73, 0xf2, 0x81, 0x3e, 0x52, 0x26, 0xf2, 0xbc, 0x90, 0xfb, 0x91, 0x3d,
  0x7e, 0xbf, 0x9c, 0x3c, 0x83, 0xbc, 0xa2, 0xbd, 0x01, 0x2b, 0x07, 0xbe,
  0xba, 0x89, 0x58, 0x3d, 0x0f, 0x09, 0x50, 0xbd, 0xfa, 0xc9, 0x53, 0x3d,
  0x0b, 0xd8, 0x07, 0x3f, 0xa9, 0xf8, 0x5b, 0xbd, 0x9d, 0x19, 0xb3, 0x3e,
  0xf2, 0xff, 0xa5, 0xbd, 0xa6, 0x07, 0xab, 0x3e, 0xfb, 0xd9, 0xda, 0x3d,
  0xd5, 0x41, 0x64, 0x3e, 0xb4, 0x94, 0x82, 0x3d, 0x4d, 0x64, 0xf4, 0x3d,
  0x89, 0x9e, 0x88, 0x3e, 0x91, 0x4b, 0x21, 0x3c, 0x11, 0x3f, 0x85, 0x3e,
  0x83, 0x4f, 0xce, 0xbd, 0x24, 0x0b, 0x55, 0x3e, 0x9b, 0x70, 0xeb, 0x3c,
  0xab, 0xb6, 0xca, 0xbc, 0x5c, 0x29, 0xef, 0xbc, 0x5d, 0xdd, 0xc0, 0x3d,
  0xe9, 0x05, 0x33, 0x3e, 0x6b, 0x96, 0x04, 0xbe, 0xec, 0x16, 0x08, 0x3c,
  0x3a, 0x72, 0x23, 0x3e, 0x9a, 0xf4, 0x8f, 0xbd, 0x5a, 0x03, 0xca, 0x3e,
  0x51, 0x24, 0x6d, 0x3e, 0x81, 0x25, 0x96, 0xbe, 0x77, 0x20, 0xc0, 0x3c,
  0x58, 0xea, 0x27, 0x3e, 0x6e, 0x0d, 0x74, 0x3e, 0xc0, 0xc8, 0xe6, 0xbd,
  0xc2, 0xf9, 0x92, 0xbd, 0x4b, 0x64, 0x74, 0x3d, 0xe7, 0x44, 0xdb, 0xbe,
  0x20, 0xa8, 0xcd, 0xbd, 0xd0, 0x1b, 0x41, 0x3d, 0x00, 0x00, 0x06, 0x00,
  0x08, 0x00, 0x04, 0x00, 0x06, 0x00, 0x00, 0x00, 0x04, 0x00, 0x00, 0x00,
  0x80, 0x02, 0x00, 0x00, 0x82, 0xfa, 0x7b, 0xbe, 0x1c, 0xc0, 0xd5, 0xbe,
  0xf1, 0xe6, 0xda, 0x3e, 0x78, 0x3b, 0xef, 0xbb, 0xa4, 0x9b, 0x64, 0x3e,
  0xb0, 0x78, 0xb4, 0xbe, 0x97, 0xea, 0x9e, 0x3e, 0xc8, 0xd9, 0xfa, 0xbc,
  0xcf, 0xcc, 0x0d, 0x3e, 0x55, 0xf6, 0xab, 0x3e, 0x00, 0x52, 0x8c, 0x3d,
  0xff, 0x52, 0x22, 0xbf, 0x50, 0x10, 0x81, 0x3c, 0xd6, 0xaa, 0x96, 0x3e,
  0xd0, 0xd9, 0x82, 0x3e, 0x58, 0x1c, 0xb9, 0x3d, 0xce, 0xc3, 0xf7, 0x3d,
  0xc5, 0x7c, 0x5b, 0xbe, 0x04, 0xa0, 0xfe, 0xbe, 0x76, 0x57, 0x0e, 0x3e,
  0x28, 0x1f, 0x8d, 0xbe, 0x55, 0x98, 0xff, 0xbe, 0x49, 0x13, 0xa9, 0xbe,
  0x2c, 0x6a, 0xe9, 0xbd, 0xdc, 0xb4, 0x27, 0xbf, 0x03, 0xbd, 0x0e, 0xbe,
  0x9a, 0x3c, 0xfd, 0x3d, 0xec, 0xb9, 0x40, 0x3e, 0xfb, 0x4e, 0x13, 0xbf,
  0xbf, 0x29, 0xba, 0x3d, 0xb3, 0x7c, 0x31, 0xbf, 0xb1, 0xc7, 0x1e, 0xbf,
  0xad, 0x25, 0xf4, 0x3e, 0x47, 0x1e, 0xc7, 0x3e, 0xe8, 0x09, 0xb1, 0xbe,
  0x97, 0x92, 0xe7, 0xbe, 0xd0, 0xb1, 0x23, 0xbf, 0x6e, 0x6a, 0x45, 0xbe,
  0x5f, 0x51, 0xce, 0xbe, 0x0b, 0x41, 0x37, 0x3e, 0xe0, 0x00, 0x51, 0xbf,
  0x02, 0x69, 0x30, 0x3e, 0x48, 0x1b, 0x36, 0x3e, 0xe1, 0xc9, 0x00, 0xbf,
  0x90, 0xe2, 0x35, 0x3e, 0xd7, 0x83, 0x90, 0xbc, 0x52, 0x13, 0x75, 0x3e,
  0x34, 0x51, 0x14, 0x3f, 0x55, 0x4a, 0xbe, 0xbe, 0x76, 0xc8, 0xc3, 0x3e,
  0xd5, 0xd5, 0x91, 0x3e, 0xc1, 0x06, 0xa6, 0x3e, 0x71, 0x1d, 0x75, 0x3e,
  0x2c, 0x74, 0x93, 0x3e, 0x1c, 0x13, 0xc4, 0x3e, 0x73, 0x78, 0xc6, 0xbe,
  0x3a, 0x88, 0x65, 0xbe, 0x4b, 0x3f, 0x58, 0x3e, 0x27, 0x39, 0x85, 0xbd,
  0x44, 0x63, 0xf5, 0x3e, 0x88, 0x1d, 0xa1, 0x3e, 0x79, 0xd3, 0xde, 0xbe,
  0x31, 0xf8, 0xee, 0xbe, 0xb4, 0xd2, 0x33, 0x3e, 0x37, 0x58, 0xd0, 0xbe,
  0x75, 0x0c, 0xbf, 0x3e, 0xfa, 0xa1, 0xd0, 0xbe, 0x28, 0xb1, 0xa7, 0x3e,
  0xea, 0x32, 0x09, 0x3e, 0xb2, 0xab, 0x86, 0xbe, 0x13, 0xa5, 0x1c, 0xbe,
  0xe6, 0xff, 0xed, 0x3d, 0x84, 0x30, 0xb1, 0x3e, 0xb5, 0xb6, 0x3a, 0xbf,
  0x6a, 0x82, 0xb0, 0x3d, 0x9e, 0xe4, 0x1d, 0x3e, 0x5f, 0x6e, 0x3b, 0xbf,
  0x24, 0x9e, 0x16, 0xbf, 0x35, 0x67, 0x30, 0xbe, 0x67, 0x9b, 0xe8, 0xbd,
  0x9b, 0xc5, 0xba, 0xbc, 0x64, 0x98, 0xaa, 0x3d, 0x0d, 0x0b, 0xed, 0xbe,
  0xf4, 0x20, 0x22, 0xbe, 0x6f, 0x24, 0x8d, 0xbe, 0x19, 0x64, 0x21, 0x3d,
  0xe6, 0x4c, 0x8d, 0x3e, 0x3a, 0x34, 0xc3, 0x3e, 0x1a, 0x0f, 0xe3, 0xbb,
  0xac, 0x9e, 0x93, 0x3e, 0x03, 0xee, 0xe3, 0xbe, 0x31, 0x49, 0xed, 0x3d,
  0x9a, 0x62, 0xc8, 0x3e, 0x3c, 0x96, 0x2f, 0xbd, 0x71, 0xa6, 0x5b, 0xbe,
  0x29, 0xcb, 0x9c, 0x3e, 0x00, 0x24, 0xb4, 0xbe, 0x59, 0x17, 0xe7, 0xbd,
  0x9c, 0xd6, 0x9b, 0x3e, 0xee, 0xdd, 0x20, 0xbf, 0xf2, 0x1c, 0x06, 0xbf,
  0x46, 0xe9, 0xf8, 0xbe, 0xea, 0x92, 0xd3, 0x3c, 0xdc, 0x7b, 0x9d, 0xbe,
  0x58, 0x36, 0x6c, 0x3e, 0xfa, 0x8d, 0x17, 0x3e, 0x5a, 0x28, 0xe2, 0xbe,
  0x83, 0xa1, 0x2d, 0x3e, 0x6c, 0x25, 0xa1, 0x3e, 0xa9, 0x4f, 0x19, 0x3e,
  0x9f, 0xe4, 0x3b, 0xbe, 0x08, 0xac, 0xdc, 0xbc, 0x80, 0x81, 0x39, 0xbf,
  0x93, 0xd0, 0xd5, 0x3e, 0xac, 0x1a, 0x2b, 0xbe, 0x8e, 0x06, 0x02, 0xbf,
  0x82, 0x90, 0xbd, 0xbe, 0x46, 0x2b, 0xff, 0x3e, 0x0b, 0xd1, 0x8f, 0x3e,
  0xcf, 0xcd, 0xc3, 0x3e, 0x8b, 0x8f, 0x01, 0x3f, 0xc3, 0x09, 0xa1, 0x3e,
  0xd5, 0xcc, 0xae, 0xbe, 0xd1, 0x0c, 0x8f, 0xbd, 0x5a, 0xc8, 0x47, 0x3c,
  0x90, 0xaf, 0x45, 0xbf, 0xb2, 0x2f, 0xc0, 0x3e, 0x80, 0x15, 0xa2, 0x3d,
  0x06, 0x87, 0x8b, 0xbe, 0xea, 0xe7, 0x1c, 0xbe, 0x53, 0x07, 0x2b, 0x3e,
  0x51, 0x35, 0x33, 0xbb, 0x3b, 0x3b, 0xca, 0x3d, 0xb8, 0x6f, 0x1e, 0x3d,
  0xc0, 0x45, 0x60, 0xbd, 0x0f, 0xed, 0x83, 0xbe, 0x01, 0x0d, 0x32, 0x3e,
  0x81, 0x06, 0xae, 0x3e, 0x5d, 0x07, 0x33, 0xbf, 0x1f, 0x89, 0x4b, 0xbf,
  0x94, 0x3b, 0x11, 0x3f, 0xeb, 0x48, 0x7b, 0x3e, 0xb6, 0xa8, 0x0d, 0xbf,
  0x6a, 0xa7, 0x22, 0x3d, 0x1a, 0xe1, 0x82, 0xbd, 0x4b, 0x70, 0x33, 0xbe,
  0x7d, 0xdd, 0x37, 0xbe, 0x48, 0x9d, 0xbb, 0xbe, 0x08, 0x2b, 0x6f, 0x3e,
  0x99, 0x72, 0x0e, 0xbf, 0x9c, 0x6f, 0x98, 0xbe, 0x0f, 0xe5, 0xc9, 0xbe,
  0x0c, 0x4f, 0xe7, 0x3e, 0xe8, 0xa1, 0x17, 0xbf, 0xa2, 0xa0, 0x9d, 0x3e,
  0x28, 0x5f, 0xac, 0xbe, 0x8c, 0x39, 0xb7, 0xbe, 0x4c, 0x9b, 0x0b, 0x3e,
  0xed, 0x9f, 0xa7, 0x3e, 0x8e, 0xa1, 0xa2, 0x3e, 0x30, 0xfb, 0xff, 0xff,
  0x34, 0xfb, 0xff, 0xff, 0x0f, 0x00, 0x00, 0x00, 0x4d, 0x4c, 0x49, 0x52,
  0x20, 0x43, 0x6f, 0x6e, 0x76, 0x65, 0x72, 0x74, 0x65, 0x64, 0x2e, 0x00,
  0x01, 0x00, 0x00, 0x00, 0x14, 0x00, 0x00, 0x00, 0x00, 0x00, 0x0e, 0x00,
  0x18, 0x00, 0x14, 0x00, 0x10, 0x00, 0x0c, 0x00, 0x08, 0x00, 0x04, 0x00,
  0x0e, 0x00, 0x00, 0x00, 0x14, 0x00, 0x00, 0x00, 0x1c, 0x00, 0x00, 0x00,
  0xd8, 0x00, 0x00, 0x00, 0xdc, 0x00, 0x00, 0x00, 0xe0, 0x00, 0x00, 0x00,
  0x04, 0x00, 0x00, 0x00, 0x6d, 0x61, 0x69, 0x6e, 0x00, 0x00, 0x00, 0x00,
  0x03, 0x00, 0x00, 0x00, 0x80, 0x00, 0x00, 0x00, 0x38, 0x00, 0x00, 0x00,
  0x04, 0x00, 0x00, 0x00, 0x9a, 0xff, 0xff, 0xff, 0x10, 0x00, 0x00, 0x00,
  0x00, 0x00, 0x00, 0x08, 0x0c, 0x00, 0x00, 0x00, 0x10, 0x00, 0x00, 0x00,
  0xac, 0xfb, 0xff, 0xff, 0x01, 0x00, 0x00, 0x00, 0x09, 0x00, 0x00, 0x00,
  0x03, 0x00, 0x00, 0x00, 0x08, 0x00, 0x00, 0x00, 0x01, 0x00, 0x00, 0x00,
  0x03, 0x00, 0x00, 0x00, 0xca, 0xff, 0xff, 0xff, 0x10, 0x00, 0x00, 0x00,
  0x00, 0x00, 0x00, 0x08, 0x10, 0x00, 0x00, 0x00, 0x14, 0x00, 0x00, 0x00,
  0xba, 0xff, 0xff, 0xff, 0x00, 0x00, 0x00, 0x01, 0x01, 0x00, 0x00, 0x00,
  0x08, 0x00, 0x00, 0x00, 0x03, 0x00, 0x00, 0x00, 0x07, 0x00, 0x00, 0x00,
  0x02, 0x00, 0x00, 0x00, 0x04, 0x00, 0x00, 0x00, 0x00, 0x00, 0x0e, 0x00,
  0x16, 0x00, 0x00, 0x00, 0x10, 0x00, 0x0c, 0x00, 0x0b, 0x00, 0x04, 0x00,
  0x0e, 0x00, 0x00, 0x00, 0x18, 0x00, 0x00, 0x00, 0x00, 0x00, 0x00, 0x08,
  0x18, 0x00, 0x00, 0x00, 0x1c, 0x00, 0x00, 0x00, 0x00, 0x00, 0x06, 0x00,
  0x08, 0x00, 0x07, 0x00, 0x06, 0x00, 0x00, 0x00, 0x00, 0x00, 0x00, 0x01,
  0x01, 0x00, 0x00, 0x00, 0x07, 0x00, 0x00, 0x00, 0x03, 0x00, 0x00, 0x00,
  0x00, 0x00, 0x00, 0x00, 0x06, 0x00, 0x00, 0x00, 0x05, 0x00, 0x00, 0x00,
  0x01, 0x00, 0x00, 0x00, 0x09, 0x00, 0x00, 0x00, 0x01, 0x00, 0x00, 0x00,
  0x00, 0x00, 0x00, 0x00, 0x0a, 0x00, 0x00, 0x00, 0x7c, 0x03, 0x00, 0x00,
  0x24, 0x03, 0x00, 0x00, 0xcc, 0x02, 0x00, 0x00, 0x90, 0x02, 0x00, 0x00,
  0x34, 0x02, 0x00, 0x00, 0xdc, 0x01, 0x00, 0x00, 0x90, 0x01, 0x00, 0x00,
  0xfc, 0x00, 0x00, 0x00, 0x60, 0x00, 0x00, 0x00, 0x04, 0x00, 0x00, 0x00,
  0xc2, 0xfc, 0xff, 0xff, 0x00, 0x00, 0x00, 0x01, 0x14, 0x00, 0x00, 0x00,
  0x1c, 0x00, 0x00, 0x00, 0x1c, 0x00, 0x00, 0x00, 0x0a, 0x00, 0x00, 0x00,
  0x34, 0x00, 0x00, 0x00, 0x02, 0x00, 0x00, 0x00, 0xff, 0xff, 0xff, 0xff,
  0x05, 0x00, 0x00, 0x00, 0xac, 0xfc, 0xff, 0xff, 0x1b, 0x00, 0x00, 0x00,
  0x53, 0x74, 0x61, 0x74, 0x65, 0x66, 0x75, 0x6c, 0x50, 0x61, 0x72, 0x74,
  0x69, 0x74, 0x69, 0x6f, 0x6e, 0x65, 0x64, 0x43, 0x61, 0x6c, 0x6c, 0x5f,
  0x31, 0x3a, 0x30, 0x00, 0x02, 0x00, 0x00, 0x00, 0x01, 0x00, 0x00, 0x00,
  0x05, 0x00, 0x00, 0x00, 0x1a, 0xfd, 0xff, 0xff, 0x00, 0x00, 0x00, 0x01,
  0x14, 0x00, 0x00, 0x00, 0x1c, 0x00, 0x00, 0x00, 0x1c, 0x00, 0x00, 0x00,
  0x09, 0x00, 0x00, 0x00, 0x74, 0x00, 0x00, 0x00, 0x02, 0x00, 0x00, 0x00,
  0xff, 0xff, 0xff, 0xff, 0x20, 0x00, 0x00, 0x00, 0x04, 0xfd, 0xff, 0xff,
  0x58, 0x00, 0x00, 0x00, 0x73, 0x65, 0x71, 0x75, 0x65, 0x6e, 0x74, 0x69,
  0x61, 0x6c, 0x5f, 0x31, 0x2f, 0x64, 0x65, 0x6e, 0x73, 0x65, 0x5f, 0x31,
  0x5f, 0x32, 0x2f, 0x4d, 0x61, 0x74, 0x4d, 0x75, 0x6c, 0x3b, 0x73, 0x65,
  0x71, 0x75, 0x65, 0x6e, 0x74, 0x69, 0x61, 0x6c, 0x5f, 0x31, 0x2f, 0x64,
  0x65, 0x6e, 0x73, 0x65, 0x5f, 0x31, 0x5f, 0x32, 0x2f, 0x52, 0x65, 0x6c,
  0x75, 0x3b, 0x73, 0x65, 0x71, 0x75, 0x65, 0x6e, 0x74, 0x69, 0x61, 0x6c,
  0x5f, 0x31, 0x2f, 0x64, 0x65, 0x6e, 0x73, 0x65, 0x5f, 0x31, 0x5f, 0x32,
  0x2f, 0x42, 0x69, 0x61, 0x73, 0x41, 0x64, 0x64, 0x00, 0x00, 0x00, 0x00,
  0x02, 0x00, 0x00, 0x00, 0x01, 0x00, 0x00, 0x00, 0x20, 0x00, 0x00, 0x00,
  0xb2, 0xfd, 0xff, 0xff, 0x00, 0x00, 0x00, 0x01, 0x14, 0x00, 0x00, 0x00,
  0x1c, 0x00, 0x00, 0x00, 0x1c, 0x00, 0x00, 0x00, 0x08, 0x00, 0x00, 0x00,
  0x6c, 0x00, 0x00, 0x00, 0x02, 0x00, 0x00, 0x00, 0xff, 0xff, 0xff, 0xff,
  0x40, 0x00, 0x00, 0x00, 0x9c, 0xfd, 0xff, 0xff, 0x52, 0x00, 0x00, 0x00,
  0x73, 0x65, 0x71, 0x75, 0x65, 0x6e, 0x74, 0x69, 0x61, 0x6c, 0x5f, 0x31,
  0x2f, 0x64, 0x65, 0x6e, 0x73, 0x65, 0x5f, 0x31, 0x2f, 0x4d, 0x61, 0x74,
  0x4d, 0x75, 0x6c, 0x3b, 0x73, 0x65, 0x71, 0x75, 0x65, 0x6e, 0x74, 0x69,
  0x61, 0x6c, 0x5f, 0x31, 0x2f, 0x64, 0x65, 0x6e, 0x73, 0x65, 0x5f, 0x31,
  0x2f, 0x52, 0x65, 0x6c, 0x75, 0x3b, 0x73, 0x65, 0x71, 0x75, 0x65, 0x6e,
  0x74, 0x69, 0x61, 0x6c, 0x5f, 0x31, 0x2f, 0x64, 0x65, 0x6e, 0x73, 0x65,
  0x5f, 0x31, 0x2f, 0x42, 0x69, 0x61, 0x73, 0x41, 0x64, 0x64, 0x00, 0x00,
  0x02, 0x00, 0x00, 0x00, 0x01, 0x00, 0x00, 0x00, 0x40, 0x00, 0x00, 0x00,
  0x96, 0xfe, 0xff, 0xff, 0x00, 0x00, 0x00, 0x01, 0x10, 0x00, 0x00, 0x00,
  0x10, 0x00, 0x00, 0x00, 0x07, 0x00, 0x00, 0x00, 0x28, 0x00, 0x00, 0x00,
  0x1c, 0xfe, 0xff, 0xff, 0x1b, 0x00, 0x00, 0x00, 0x73, 0x65, 0x71, 0x75,
  0x65, 0x6e, 0x74, 0x69, 0x61, 0x6c, 0x5f, 0x31, 0x2f, 0x64, 0x65, 0x6e,
  0x73, 0x65, 0x5f, 0x31, 0x2f, 0x4d, 0x61, 0x74, 0x4d, 0x75, 0x6c, 0x00,
  0x02, 0x00, 0x00, 0x00, 0x40, 0x00, 0x00, 0x00, 0x09, 0x00, 0x00, 0x00,
  0xde, 0xfe, 0xff, 0xff, 0x00, 0x00, 0x00, 0x01, 0x10, 0x00, 0x00, 0x00,
  0x10, 0x00, 0x00, 0x00, 0x06, 0x00, 0x00, 0x00, 0x38, 0x00, 0x00, 0x00,
  0x64, 0xfe, 0xff, 0xff, 0x2b, 0x00, 0x00, 0x00, 0x73, 0x65, 0x71, 0x75,
  0x65, 0x6e, 0x74, 0x69, 0x61, 0x6c, 0x5f, 0x31, 0x2f, 0x64, 0x65, 0x6e,
  0x73, 0x65, 0x5f, 0x31, 0x2f, 0x42, 0x69, 0x61, 0x73, 0x41, 0x64, 0x64,
  0x2f, 0x52, 0x65, 0x61, 0x64, 0x56, 0x61, 0x72, 0x69, 0x61, 0x62, 0x6c,
  0x65, 0x4f, 0x70, 0x00, 0x01, 0x00, 0x00, 0x00, 0x40, 0x00, 0x00, 0x00,
  0x32, 0xff, 0xff, 0xff, 0x00, 0x00, 0x00, 0x01, 0x10, 0x00, 0x00, 0x00,
  0x10, 0x00, 0x00, 0x00, 0x05, 0x00, 0x00, 0x00, 0x3c, 0x00, 0x00, 0x00,
  0xb8, 0xfe, 0xff, 0xff, 0x2d, 0x00, 0x00, 0x00, 0x73, 0x65, 0x71, 0x75,
  0x65, 0x6e, 0x74, 0x69, 0x61, 0x6c, 0x5f, 0x31, 0x2f, 0x64, 0x65, 0x6e,
  0x73, 0x65, 0x5f, 0x31, 0x5f, 0x32, 0x2f, 0x42, 0x69, 0x61, 0x73, 0x41,
  0x64, 0x64, 0x2f, 0x52, 0x65, 0x61, 0x64, 0x56, 0x61, 0x72, 0x69, 0x61,
  0x62, 0x6c, 0x65, 0x4f, 0x70, 0x00, 0x00, 0x00, 0x01, 0x00, 0x00, 0x00,
  0x20, 0x00, 0x00, 0x00, 0x8a, 0xff, 0xff, 0xff, 0x00, 0x00, 0x00, 0x01,
  0x10, 0x00, 0x00, 0x00, 0x10, 0x00, 0x00, 0x00, 0x04, 0x00, 0x00, 0x00,
  0x1c, 0x00, 0x00, 0x00, 0x10, 0xff, 0xff, 0xff, 0x0f, 0x00, 0x00, 0x00,
  0x61, 0x72, 0x69, 0x74, 0x68, 0x2e, 0x63, 0x6f, 0x6e, 0x73, 0x74, 0x61,
  0x6e, 0x74, 0x32, 0x00, 0x01, 0x00, 0x00, 0x00, 0x05, 0x00, 0x00, 0x00,
  0xc2, 0xff, 0xff, 0xff, 0x00, 0x00, 0x00, 0x01, 0x10, 0x00, 0x00, 0x00,
  0x10, 0x00, 0x00, 0x00, 0x03, 0x00, 0x00, 0x00, 0x1c, 0x00, 0x00, 0x00,
  0x48, 0xff, 0xff, 0xff, 0x0f, 0x00, 0x00, 0x00, 0x61, 0x72, 0x69, 0x74,
  0x68, 0x2e, 0x63, 0x6f, 0x6e, 0x73, 0x74, 0x61, 0x6e, 0x74, 0x31, 0x00,
  0x02, 0x00, 0x00, 0x00, 0x20, 0x00, 0x00, 0x00, 0x40, 0x00, 0x00, 0x00,
  0x00, 0x00, 0x16, 0x00, 0x18, 0x00, 0x14, 0x00, 0x00, 0x00, 0x10, 0x00,
  0x0c, 0x00, 0x08, 0x00, 0x00, 0x00, 0x00, 0x00, 0x00, 0x00, 0x07, 0x00,
  0x16, 0x00, 0x00, 0x00, 0x00, 0x00, 0x00, 0x01, 0x10, 0x00, 0x00, 0x00,
  0x10, 0x00, 0x00, 0x00, 0x02, 0x00, 0x00, 0x00, 0x1c, 0x00, 0x00, 0x00,
  0x9c, 0xff, 0xff, 0xff, 0x0e, 0x00, 0x00, 0x00, 0x61, 0x72, 0x69, 0x74,
  0x68, 0x2e, 0x63, 0x6f, 0x6e, 0x73, 0x74, 0x61, 0x6e, 0x74, 0x00, 0x00,
  0x02, 0x00, 0x00, 0x00, 0x05, 0x00, 0x00, 0x00, 0x20, 0x00, 0x00, 0x00,
  0x00, 0x00, 0x16, 0x00, 0x1c, 0x00, 0x18, 0x00, 0x00, 0x00, 0x14, 0x00,
  0x10, 0x00, 0x0c, 0x00, 0x00, 0x00, 0x00, 0x00, 0x08, 0x00, 0x07, 0x00,
  0x16, 0x00, 0x00, 0x00, 0x00, 0x00, 0x00, 0x01, 0x14, 0x00, 0x00, 0x00,
  0x20, 0x00, 0x00, 0x00, 0x20, 0x00, 0x00, 0x00, 0x01, 0x00, 0x00, 0x00,
  0x3c, 0x00, 0x00, 0x00, 0x02, 0x00, 0x00, 0x00, 0xff, 0xff, 0xff, 0xff,
  0x09, 0x00, 0x00, 0x00, 0x04, 0x00, 0x04, 0x00, 0x04, 0x00, 0x00, 0x00,
  0x1e, 0x00, 0x00, 0x00, 0x73, 0x65, 0x72, 0x76, 0x69, 0x6e, 0x67, 0x5f,
  0x64, 0x65, 0x66, 0x61, 0x75, 0x6c, 0x74, 0x5f, 0x6b, 0x65, 0x72, 0x61,
  0x73, 0x5f, 0x74, 0x65, 0x6e, 0x73, 0x6f, 0x72, 0x3a, 0x30, 0x00, 0x00,
  0x02, 0x00, 0x00, 0x00, 0x01, 0x00, 0x00, 0x00, 0x09, 0x00, 0x00, 0x00,
  0x01, 0x00, 0x00, 0x00, 0x10, 0x00, 0x00, 0x00, 0x0c, 0x00, 0x0c, 0x00,
  0x0b, 0x00, 0x00, 0x00, 0x00, 0x00, 0x04, 0x00, 0x0c, 0x00, 0x00, 0x00,
  0x09, 0x00, 0x00, 0x00, 0x00, 0x00, 0x00, 0x09,
 };

const int modelo_disturbios_len = 13424;

#endif
